<pad>	0
<unk>	0
<s>	0
</s>	0
<myth>	0
<hero>	0
,	-2.83676
▁the	-2.9621
.	-3.42444
▁of	-3.45577
▁and	-3.76615
s	-3.85385
▁to	-4.03187
▁a	-4.26218
▁in	-4.31442
▁is	-4.8332
▁that	-4.87689
▁with	-5.02491
-	-5.12387
▁was	-5.17177
▁his	-5.18296
▁by	-5.25068
▁The	-5.33049
▁as	-5.33681
▁for	-5.39443
;	-5.40407
▁it	-5.4323
▁on	-5.43264
▁he	-5.45661
▁be	-5.51312
'	-5.54667
▁I	-5.58523
▁from	-5.60655
▁which	-5.61062
▁are	-5.61737
▁or	-5.6367
▁not	-5.672
▁at	-5.68635
▁their	-5.76967
ing	-5.78563
▁this	-5.79764
▁had	-5.79787
▁all	-5.85729
ed	-5.90138
▁have	-5.92637
▁they	-5.92935
▁were	-5.97499
▁(	-6.00421
▁"	-6.01765
▁who	-6.02298
d	-6.05306
▁one	-6.08836
▁but	-6.11806
▁_	-6.12961
▁him	-6.15413
▁	-6.20028
▁an	-6.23089
▁them	-6.27894
▁her	-6.30681
ly	-6.35234
▁been	-6.36807
▁A	-6.44763
▁you	-6.46938
’	-6.46979
▁we	-6.47791
▁so	-6.49349
--	-6.50301
:	-6.50414
▁|	-6.54238
▁has	-6.56705
▁my	-6.5901
▁other	-6.59755
▁no	-6.6058
▁He	-6.61592
▁will	-6.62396
)	-6.64578
e	-6.64792
▁there	-6.68253
_	-6.68881
▁And	-6.70414
▁when	-6.7156
▁[	-6.71877
▁said	-6.72168
▁me	-6.72294
▁In	-6.72674
a	-6.7423
▁into	-6.75703
▁O	-6.75716
▁would	-6.77124
▁“	-6.7912
t	-6.80136
er	-6.81327
▁It	-6.81643
▁its	-6.81775
▁these	-6.84821
y	-6.85329
▁great	-6.85809
▁some	-6.86561
▁up	-6.87916
▁out	-6.8823
▁any	-6.88334
▁more	-6.9355
."	-6.95784
▁two	-6.96311
▁time	-6.97091
▁only	-6.97464
▁man	-6.97932
▁she	-6.98055
▁may	-6.9811
▁those	-6.98731
n	-6.99959
▁do	-7.00444
!	-7.02675
▁men	-7.0303
▁like	-7.04139
▁if	-7.06059
▁then	-7.06335
▁also	-7.07141
▁very	-7.07231
th	-7.07763
▁our	-7.07885
▁'	-7.0817
▁upon	-7.08507
▁son	-7.08869
▁should	-7.09126
▁king	-7.0913
▁India	-7.10476
▁being	-7.10481
m	-7.10621
in	-7.10716
▁than	-7.10959
▁made	-7.11279
i	-7.14066
▁about	-7.15669
▁such	-7.15724
▁over	-7.1728
r	-7.18045
▁can	-7.18883
c	-7.19429
?	-7.21448
▁now	-7.22235
▁after	-7.22263
▁could	-7.2408
▁what	-7.24207
▁before	-7.24536
I	-7.26713
S	-7.27059
▁They	-7.27205
al	-7.28772
▁But	-7.29414
▁own	-7.30948
▁day	-7.31225
▁many	-7.31618
A	-7.32262
▁This	-7.33037
es	-7.34092
▁first	-7.34808
▁where	-7.35268
▁must	-7.36049
▁thou	-7.36109
_,	-7.36283
▁under	-7.37371
▁us	-7.38673
▁most	-7.40249
▁work	-7.4047
▁down	-7.42414
▁through	-7.43653
,"	-7.43762
▁same	-7.43972
▁people	-7.44149
▁well	-7.45497
—	-7.46248
▁life	-7.46344
g	-7.46731
▁place	-7.48133
▁himself	-7.48792
▁S	-7.50012
▁without	-7.50174
▁called	-7.50685
▁p	-7.51523
▁even	-7.52502
▁thy	-7.53296
▁three	-7.54132
▁long	-7.54552
▁name	-7.55243
▁every	-7.56541
▁your	-7.57125
b	-7.58061
▁came	-7.58112
▁Project	-7.58318
),	-7.58438
▁good	-7.5924
l	-7.59772
▁while	-7.59776
▁much	-7.59905
The	-7.61484
▁having	-7.6245
D	-7.62523
▁way	-7.62847
▁little	-7.63509
p	-7.63702
st	-7.65563
▁old	-7.65998
▁come	-7.66557
▁found	-7.66571
▁did	-7.66874
re	-7.67895
▁each	-7.68069
▁shall	-7.68121
▁Indian	-7.68566
the	-7.68723
na	-7.69656
▁As	-7.69978
▁away	-7.70107
▁part	-7.70608
▁head	-7.71128
k	-7.7136
▁again	-7.71945
E	-7.72174
▁water	-7.72278
▁never	-7.72443
▁country	-7.72719
▁see	-7.73051
▁among	-7.73494
▁un	-7.73758
h	-7.73778
▁years	-7.73815
▁There	-7.74103
or	-7.74224
▁go	-7.74545
▁If	-7.75336
▁When	-7.75935
▁On	-7.76292
▁between	-7.76681
▁another	-7.77482
▁off	-7.78996
▁against	-7.79004
.”	-7.79246
▁still	-7.80596
▁make	-7.81212
ri	-7.8172
▁To	-7.82239
▁world	-7.82295
▁body	-7.82335
▁however	-7.82893
ta	-7.83212
).	-7.84025
▁Then	-7.84149
▁thus	-7.84346
ness	-7.84363
▁last	-7.85025
▁back	-7.8512
▁take	-7.85249
o	-7.85312
▁might	-7.85393
▁hand	-7.86038
▁Mr	-7.86187
▁His	-7.86333
la	-7.86352
▁B	-7.86943
▁here	-7.87337
▁We	-7.87392
ra	-7.88612
▁battle	-7.88842
▁At	-7.89456
▁re	-7.90291
▁form	-7.90602
▁whose	-7.90618
▁whom	-7.90789
▁thee	-7.91086
▁house	-7.91126
▁both	-7.91803
▁large	-7.92882
C	-7.93367
▁know	-7.934
▁GutenbergTM	-7.93465
▁death	-7.93496
▁‘	-7.95185
/	-7.95574
▁whole	-7.9583
▁left	-7.96412
▁days	-7.96589
▁once	-7.97267
▁words	-7.9767
▁de	-7.98048
▁night	-7.98196
ti	-7.98492
▁For	-7.98802
▁given	-7.98839
▁am	-7.98855
▁few	-7.98996
▁themselves	-7.99051
▁say	-7.99404
▁went	-7.99677
▁father	-8.0028
▁E	-8.00603
▁fire	-8.00733
▁though	-8.00808
li	-8.01154
▁far	-8.0157
▁give	-8.01619
man	-8.02164
it	-8.02224
▁how	-8.02343
▁small	-8.02433
ers	-8.02488
▁high	-8.03847
▁known	-8.04769
▁present	-8.04855
u	-8.05227
▁means	-8.05618
le	-8.05754
▁took	-8.06354
▁set	-8.0683
▁Brahman	-8.07848
▁side	-8.08015
on	-8.08066
▁C	-8.08301
▁always	-8.08517
ur	-8.08645
▁art	-8.08992
▁taken	-8.09047
▁four	-8.0913
▁women	-8.09399
▁caste	-8.1057
▁earth	-8.10696
as	-8.10908
ic	-8.11863
"	-8.11915
▁end	-8.12853
▁city	-8.13104
▁unto	-8.13168
is	-8.1349
▁sent	-8.13661
▁number	-8.13801
ma	-8.13929
▁new	-8.14004
▁round	-8.14051
ya	-8.14303
▁woman	-8.14373
▁eyes	-8.14519
▁seen	-8.15151
▁1.	-8.15426
▁So	-8.15451
▁chief	-8.15991
ation	-8.16477
▁river	-8.16859
▁That	-8.16974
▁cannot	-8.16976
▁P	-8.17045
an	-8.17076
▁mind	-8.17643
▁brought	-8.17665
▁too	-8.17862
▁right	-8.1804
▁heart	-8.18314
us	-8.19154
▁full	-8.1936
▁power	-8.1979
▁feet	-8.20335
▁works	-8.207
▁others	-8.21013
▁near	-8.2106
▁wife	-8.21172
▁therefore	-8.2124
▁She	-8.21889
▁s	-8.21962
▁became	-8.22308
▁ever	-8.22696
▁order	-8.22725
▁King	-8.22895
▁within	-8.22935
and	-8.2328
▁does	-8.23413
▁i	-8.23459
ity	-8.23534
_.	-8.23645
▁village	-8.23834
▁gold	-8.23981
]	-8.24091
▁year	-8.24143
to	-8.24228
▁yet	-8.24277
▁because	-8.24453
O	-8.24628
ch	-8.24862
▁(_	-8.24922
▁person	-8.2497
▁British	-8.25987
”	-8.26062
▁soul	-8.26409
▁hundred	-8.26738
▁gave	-8.27636
en	-8.27728
▁thought	-8.27744
▁state	-8.28481
▁things	-8.28482
▁G	-8.28959
▁white	-8.28974
▁Government	-8.28981
▁knowledge	-8.28984
.]	-8.29081
▁use	-8.29218
▁W	-8.29272
va	-8.295
▁during	-8.2951
▁five	-8.2962
▁hands	-8.29878
▁put	-8.30083
▁F	-8.30083
▁THE	-8.30224
▁car	-8.30326
▁ground	-8.30542
▁light	-8.31148
sa	-8.31791
▁land	-8.3202
▁mother	-8.32142
▁soon	-8.32721
▁above	-8.32727
▁With	-8.32993
▁used	-8.33327
▁become	-8.33489
M	-8.33506
▁D	-8.33807
▁No	-8.33816
est	-8.34545
▁English	-8.34619
▁saw	-8.34758
▁account	-8.34827
am	-8.35159
f	-8.35203
▁mighty	-8.35438
▁different	-8.35636
▁-	-8.35761
▁heard	-8.36082
able	-8.36156
ul	-8.36194
▁troops	-8.36732
▁towards	-8.36906
▁following	-8.36926
▁army	-8.37092
8	-8.37296
▁sun	-8.37524
▁done	-8.37866
▁young	-8.37891
▁course	-8.37925
▁nothing	-8.38365
▁certain	-8.38419
at	-8.38445
▁began	-8.38446
@	-8.38521
▁One	-8.38547
▁love	-8.38579
et	-8.38848
▁race	-8.39408
▁war	-8.3949
▁Krishna	-8.39501
less	-8.39556
▁nor	-8.39728
▁just	-8.39809
di	-8.40112
▁told	-8.40153
▁force	-8.40267
B	-8.40464
ar	-8.41246
▁children	-8.41299
[	-8.4198
▁face	-8.42089
▁All	-8.42097
P	-8.4214
▁food	-8.42162
▁T	-8.42188
▁half	-8.42408
de	-8.42554
▁held	-8.42589
▁almost	-8.42671
▁3	-8.42746
▁best	-8.43063
▁family	-8.43082
il	-8.43455
▁together	-8.43753
▁brother	-8.44047
ha	-8.44151
▁*	-8.44397
▁find	-8.4468
▁cause	-8.44952
▁home	-8.45115
▁return	-8.4517
▁word	-8.45603
▁These	-8.45677
▁itself	-8.45838
?"	-8.45879
▁God	-8.45988
F	-8.46619
T	-8.46816
5	-8.47176
▁case	-8.47231
▁thousand	-8.47247
▁child	-8.47497
▁second	-8.47562
ion	-8.47633
▁Hindu	-8.47763
▁until	-8.48098
▁K	-8.48228
▁Indians	-8.48314
▁tree	-8.48425
▁Sir	-8.48459
▁gods	-8.48823
7	-8.48908
▁miles	-8.49084
▁think	-8.49269
ka	-8.4927
▁true	-8.49314
▁Lord	-8.49431
ud	-8.49603
▁native	-8.50308
ni	-8.51052
ir	-8.51211
v	-8.51274
▁fact	-8.51279
▁4	-8.51816
.--	-8.51881
▁dead	-8.52223
▁several	-8.532
▁By	-8.54329
▁next	-8.54442
▁M	-8.54568
▁terms	-8.5466
ve	-8.55013
▁kind	-8.55372
▁fell	-8.55481
co	-8.55535
▁placed	-8.55571
▁nature	-8.55856
▁You	-8.55872
▁passed	-8.56039
da	-8.56157
R	-8.56387
▁latter	-8.56444
ll	-8.56452
▁OF	-8.56511
▁received	-8.56977
,”	-8.57049
▁either	-8.57367
▁morning	-8.57993
▁lord	-8.58251
▁Of	-8.58295
▁After	-8.58497
w	-8.58625
2	-8.58978
ry	-8.59023
▁Re	-8.59049
▁ten	-8.59063
▁less	-8.59328
G	-8.59332
▁arms	-8.59479
j	-8.59574
▁temple	-8.59783
._	-8.59901
▁sacred	-8.60122
▁till	-8.60146
▁enemy	-8.60217
ted	-8.60251
▁husband	-8.60265
▁says	-8.60773
▁already	-8.6085
um	-8.61005
▁5	-8.6109
▁Gutenberg	-8.61124
▁cut	-8.61525
▁position	-8.62002
.[	-8.62598
▁fear	-8.62673
▁marriage	-8.62872
se	-8.6293
▁rest	-8.62945
▁view	-8.6337
ling	-8.63527
▁sons	-8.63647
el	-8.63662
▁along	-8.63896
!"	-8.63991
▁sea	-8.64035
▁From	-8.64313
un	-8.64371
▁general	-8.64619
▁forth	-8.64634
▁Thus	-8.6464
9	-8.6471
▁moment	-8.64717
▁horse	-8.64845
vi	-8.65243
▁often	-8.65303
▁let	-8.65331
▁doubt	-8.65339
▁free	-8.65468
▁live	-8.65571
▁Do	-8.65995
ro	-8.66035
▁times	-8.66139
▁asked	-8.66146
▁electronic	-8.66318
▁according	-8.66514
▁H	-8.67365
ment	-8.67466
H	-8.67661
▁What	-8.67715
▁carried	-8.6772
▁line	-8.67965
▁object	-8.68045
▁Sa	-8.68185
▁prince	-8.68213
▁town	-8.68216
▁daughter	-8.68413
ia	-8.68456
▁get	-8.68646
0	-8.68691
wa	-8.69143
▁1	-8.69185
▁various	-8.6929
▁...	-8.69418
▁since	-8.69539
te	-8.6989
ad	-8.70118
▁De	-8.70416
▁8	-8.70521
▁forest	-8.70719
ga	-8.70759
▁human	-8.7076
▁point	-8.7088
▁con	-8.70989
▁god	-8.7105
▁alone	-8.71205
▁beautiful	-8.71233
▁J	-8.71718
▁o	-8.7179
z	-8.71844
▁Singh	-8.72058
▁desire	-8.7225
pa	-8.72337
K	-8.72369
▁saying	-8.72868
ous	-8.72875
▁trees	-8.72993
id	-8.73055
led	-8.73192
▁worship	-8.73345
▁looked	-8.7346
▁U	-8.73841
▁tell	-8.73859
▁twenty	-8.73926
▁blood	-8.74172
▁e	-8.74194
▁Thou	-8.74199
▁V	-8.74242
ā	-8.74802
L	-8.74996
▁seems	-8.75323
▁Some	-8.75361
▁further	-8.75428
▁An	-8.75489
ne	-8.75816
▁foremost	-8.76284
▁bow	-8.76331
he	-8.76347
▁reached	-8.76447
▁St	-8.76737
▁keep	-8.7675
▁officers	-8.77007
▁Khan	-8.77051
▁non	-8.77273
ting	-8.77289
▁foot	-8.77404
▁black	-8.77619
ter	-8.77784
▁reason	-8.77859
▁character	-8.77869
▁Ka	-8.7788
▁Foundation	-8.77899
▁returned	-8.78084
tra	-8.78125
▁girl	-8.78188
▁look	-8.78245
▁N	-8.78256
ent	-8.78299
▁act	-8.78344
▁friend	-8.78491
▁matter	-8.78725
▁self	-8.78903
▁arrows	-8.7899
ant	-8.79009
▁persons	-8.79141
ful	-8.79558
▁open	-8.79618
6	-8.7973
men	-8.79796
▁period	-8.798
▁friends	-8.79801
▁killed	-8.79899
▁R	-8.79999
3	-8.80119
hi	-8.80233
ru	-8.80513
▁common	-8.80685
▁ancient	-8.80908
▁My	-8.81067
1	-8.81742
▁truth	-8.81799
▁probably	-8.81821
▁highest	-8.81992
▁Su	-8.82096
▁six	-8.82491
▁seven	-8.82706
▁story	-8.82733
▁short	-8.82928
ge	-8.82963
▁evil	-8.82986
▁c	-8.83044
▁lay	-8.83197
▁subject	-8.8345
ja	-8.83575
▁spirit	-8.83704
▁eat	-8.83743
▁Delhi	-8.83804
▁former	-8.83922
▁quite	-8.84052
ate	-8.84323
ish	-8.84333
▁thing	-8.84454
▁red	-8.84625
▁service	-8.85048
sh	-8.85133
▁close	-8.85272
▁law	-8.85371
si	-8.85827
▁sacrifice	-8.85958
▁money	-8.86312
▁strong	-8.86449
Footnote	-8.86583
me	-8.86736
▁leave	-8.86788
▁Self	-8.86874
▁stood	-8.86948
▁tribes	-8.87474
í	-8.87534
▁better	-8.87546
▁charge	-8.87554
▁bring	-8.8768
â	-8.87725
▁States	-8.87735
▁able	-8.8775
▁wild	-8.87802
▁purpose	-8.88182
▁government	-8.88223
▁filled	-8.88249
────────────────	-8.88287
▁religious	-8.88292
im	-8.88708
▁followed	-8.89118
▁north	-8.89331
ce	-8.89435
▁indeed	-8.89511
▁whether	-8.89702
▁Bengal	-8.89788
nd	-8.89855
▁possessed	-8.89863
▁L	-8.90001
▁monarch	-8.90026
▁effect	-8.90297
▁behind	-8.903
▁dis	-8.9033
▁history	-8.90408
▁field	-8.90609
ated	-8.90617
▁road	-8.90688
ty	-8.90744
lo	-8.90761
▁birth	-8.90977
▁sight	-8.91354
ci	-8.91397
pur	-8.91709
▁Their	-8.91765
▁sense	-8.92066
▁going	-8.9209
▁fight	-8.92222
▁nearly	-8.92235
▁rather	-8.92359
▁kingdom	-8.92453
▁early	-8.9247
▁United	-8.92525
▁knew	-8.92582
▁lost	-8.92606
▁sometimes	-8.92671
▁got	-8.92744
▁tribe	-8.93097
4	-8.93287
▁6	-8.93297
▁hear	-8.9338
▁seemed	-8.93531
ut	-8.93544
▁kept	-8.93742
▁covered	-8.93742
▁later	-8.93793
▁hold	-8.9388
▁General	-8.93912
▁agreement	-8.93953
▁continued	-8.9412
be	-8.94173
▁strength	-8.94173
▁living	-8.94199
▁making	-8.94245
▁generally	-8.94405
▁slain	-8.94571
ary	-8.94609
▁age	-8.94642
▁poor	-8.9468
▁turned	-8.94684
▁hair	-8.94771
▁born	-8.94812
▁system	-8.9517
▁show	-8.95192
▁meet	-8.95255
▁elephants	-8.95366
▁help	-8.95404
rs	-8.95504
▁perhaps	-8.95531
▁south	-8.95538
ive	-8.95562
▁question	-8.95809
▁possible	-8.95813
▁mountain	-8.95867
▁bride	-8.95902
▁religion	-8.95912
▁met	-8.95978
▁rice	-8.96149
▁taking	-8.96153
N	-8.96292
▁parts	-8.96296
▁air	-8.96513
▁camp	-8.96738
▁2	-8.96748
du	-8.97602
pe	-8.97796
▁manner	-8.97897
▁Indra	-8.9809
▁party	-8.98489
▁eye	-8.98798
ism	-8.98877
tion	-8.98903
▁heaven	-8.98904
▁least	-8.98944
▁Na	-8.98948
▁believe	-8.98949
▁wealth	-8.99349
ca	-8.99456
▁places	-8.99589
▁public	-8.99694
▁rule	-8.99704
▁died	-8.99886
8]	-9.00025
▁viz	-9.00054
▁dark	-9.00056
▁fall	-9.0026
▁call	-9.00429
▁Now	-9.0049
▁La	-9.00533
▁distance	-9.00911
_)	-9.00921
x	-9.0099
▁consequence	-9.01001
ian	-9.01058
▁paid	-9.0113
▁low	-9.01135
of	-9.01186
▁per	-9.01357
2]	-9.015
▁boy	-9.01529
▁duty	-9.0156
▁acts	-9.01733
▁considered	-9.01921
▁read	-9.02264
4]	-9.02343
▁silver	-9.02608
▁anything	-9.0261
▁names	-9.02638
▁fair	-9.0265
▁follow	-9.02656
▁master	-9.02838
▁Be	-9.0304
▁w	-9.03111
▁important	-9.03141
▁Pa	-9.03218
3]	-9.03306
▁co	-9.03355
▁Bharata	-9.0341
W	-9.03556
▁influence	-9.03561
▁creatures	-9.03576
▁except	-9.03761
▁speak	-9.03932
for	-9.03974
▁led	-9.04003
î	-9.0419
▁hath	-9.04207
▁See	-9.04215
▁arrived	-9.04454
5]	-9.04465
pi	-9.0449
day	-9.04528
▁entered	-9.04577
▁Go	-9.04639
1]	-9.04722
▁elephant	-9.04765
▁Ba	-9.04777
▁England	-9.05064
▁stone	-9.05236
▁front	-9.05404
9]	-9.05441
▁named	-9.05687
!”	-9.057
▁deep	-9.05759
▁beyond	-9.05864
▁ceremony	-9.05864
▁peace	-9.06207
▁pay	-9.06275
▁17	-9.06301
6]	-9.06437
▁enough	-9.06479
▁necessary	-9.06574
▁pass	-9.06576
▁district	-9.06661
▁spot	-9.0681
▁copyright	-9.06814
▁European	-9.06847
▁royal	-9.0685
▁something	-9.06965
▁sub	-9.07009
▁hill	-9.07058
▁Me	-9.07134
▁care	-9.07255
▁gone	-9.07299
▁appear	-9.07361
▁shafts	-9.07375
▁individual	-9.07399
,000	-9.07456
▁palace	-9.07561
▁7	-9.07742
▁Mo	-9.07792
har	-9.0796
mo	-9.07961
eth	-9.07967
▁command	-9.07972
▁addressed	-9.08046
▁laid	-9.08056
▁century	-9.08107
▁existence	-9.08196
▁honour	-9.08196
▁length	-9.08568
▁obtained	-9.08695
ak	-9.08956
▁fine	-9.09001
▁en	-9.09118
▁replied	-9.09264
▁kings	-9.09266
▁=	-9.09336
▁Ko	-9.09427
▁third	-9.09491
Y	-9.09619
▁10	-9.09778
▁class	-9.09902
mi	-9.09994
▁due	-9.10034
7]	-9.10149
▁Having	-9.10166
▁15	-9.10203
ine	-9.10259
ba	-9.10315
▁real	-9.10419
▁faith	-9.10722
▁Ra	-9.1074
▁Madras	-9.10813
▁sat	-9.10818
U	-9.10849
▁clear	-9.11238
ck	-9.1133
▁warriors	-9.11337
▁mouth	-9.11396
▁hope	-9.11415
▁animals	-9.11545
▁Dr	-9.11657
▁seem	-9.11702
tri	-9.11752
▁capital	-9.11892
▁month	-9.12255
▁Footnote	-9.12326
▁flowers	-9.12359
▁around	-9.12589
▁Arjuna	-9.12589
▁│	-9.12686
age	-9.12701
▁myself	-9.1273
▁respect	-9.12756
▁ii	-9.12759
▁turn	-9.12833
▁remained	-9.12862
▁occasion	-9.13009
ke	-9.13044
▁etc	-9.13161
▁Ta	-9.13204
▁Here	-9.13284
▁18	-9.13295
▁although	-9.13544
▁forms	-9.13558
▁appears	-9.13608
▁bear	-9.13702
▁wish	-9.13822
▁soldiers	-9.13859
no	-9.13991
▁regard	-9.14021
▁Ha	-9.14049
▁performed	-9.14049
▁obtain	-9.14149
▁Hindus	-9.14215
tu	-9.14218
▁Her	-9.14326
▁regarded	-9.14549
▁months	-9.14652
▁9	-9.14869
▁coming	-9.14927
▁action	-9.14943
▁wood	-9.14966
▁moon	-9.15013
▁cloth	-9.15232
▁Co	-9.15369
▁afterwards	-9.15481
▁Karna	-9.15662
war	-9.15809
kh	-9.15988
▁past	-9.16015
▁f	-9.16032
▁idea	-9.16041
lu	-9.16181
▁described	-9.16344
▁shot	-9.1642
▁court	-9.16465
▁felt	-9.16503
▁appeared	-9.16551
op	-9.16688
0]	-9.16834
▁support	-9.16901
ho	-9.1725
▁kinds	-9.17439
▁Man	-9.17449
▁visit	-9.17957
ies	-9.18254
▁becomes	-9.18326
▁date	-9.18379
▁below	-9.18466
▁engaged	-9.18603
▁CHAPTER	-9.18639
▁none	-9.18716
ton	-9.18791
▁result	-9.1903
ance	-9.19049
▁hard	-9.19119
os	-9.19126
ring	-9.19179
ah	-9.19193
▁laws	-9.19327
▁Captain	-9.19338
▁12	-9.19368
á	-9.19384
go	-9.1944
▁energy	-9.19477
▁leaves	-9.19528
▁grief	-9.19551
▁beginning	-9.19553
▁horses	-9.19754
bo	-9.19792
▁Drona	-9.19809
we	-9.19983
▁states	-9.20174
▁Brahmans	-9.20203
▁ready	-9.20342
▁joy	-9.20367
gi	-9.20401
if	-9.20514
▁animal	-9.20595
▁everything	-9.20855
▁holy	-9.20876
▁want	-9.20916
dha	-9.20932
▁sound	-9.20992
▁special	-9.21011
▁need	-9.21022
▁duties	-9.21074
▁foes	-9.21085
▁remain	-9.21141
▁voice	-9.21245
▁outside	-9.21327
▁particular	-9.21349
▁--	-9.21422
▁future	-9.21486
▁evening	-9.21495
▁la	-9.21551
▁pure	-9.21568
▁similar	-9.21585
▁formed	-9.21616
▁How	-9.21654
▁stand	-9.21668
▁Vi	-9.21741
▁raised	-9.21865
▁members	-9.2193
▁hour	-9.21997
do	-9.22056
▁bridegroom	-9.22316
▁sweet	-9.22354
▁takes	-9.22359
▁guns	-9.22429
▁Raja	-9.2247
▁meaning	-9.22602
▁rose	-9.22635
▁single	-9.22703
one	-9.22936
▁gives	-9.23014
ence	-9.2322
▁dear	-9.23259
▁II	-9.23568
ts	-9.23728
▁ye	-9.23796
Illustration	-9.23839
▁origin	-9.23863
▁fort	-9.23868
▁Da	-9.23898
▁bright	-9.23962
▁Calcutta	-9.24043
▁hast	-9.24117
▁hills	-9.24148
▁mountains	-9.24389
ie	-9.24431
▁struck	-9.24499
▁excellent	-9.24615
▁hero	-9.24623
▁offered	-9.24694
▁st	-9.24789
▁else	-9.2485
▁ill	-9.24883
▁across	-9.24912
hu	-9.24947
▁wind	-9.24963
▁castes	-9.24963
▁houses	-9.25015
▁allowed	-9.25164
▁presence	-9.25628
▁especially	-9.25684
▁beauty	-9.25785
▁mentioned	-9.25974
▁why	-9.26074
▁equal	-9.26106
▁language	-9.26149
▁vi	-9.26169
tha	-9.26174
é	-9.26187
son	-9.26282
▁supposed	-9.26355
▁comes	-9.2644
▁carry	-9.26473
ating	-9.26608
▁original	-9.26676
ana	-9.2673
▁sleep	-9.26781
sha	-9.26806
▁30	-9.2683
▁Even	-9.26898
ber	-9.26961
▁greater	-9.26966
▁cow	-9.27096
▁lived	-9.27454
▁eight	-9.27509
▁aid	-9.27788
▁attack	-9.27858
▁tiger	-9.27871
▁change	-9.27876
▁military	-9.27886
▁built	-9.28144
▁written	-9.28252
▁passage	-9.28276
▁Rāma	-9.28464
▁weapons	-9.28479
▁room	-9.28884
▁including	-9.291
▁ordered	-9.29117
▁conduct	-9.29148
▁longer	-9.29157
▁spoke	-9.29167
▁16	-9.29228
▁brothers	-9.29344
land	-9.29361
▁sword	-9.29422
gu	-9.29461
▁copy	-9.29477
gar	-9.295
▁proceeded	-9.29574
▁forward	-9.29645
▁brave	-9.29648
▁mine	-9.29709
our	-9.29844
▁lives	-9.29848
▁really	-9.29903
▁Cherokee	-9.29991
▁difficult	-9.3008
▁title	-9.30172
▁door	-9.30195
▁neck	-9.30241
▁Bombay	-9.30296
▁path	-9.30415
dar	-9.30561
▁State	-9.30676
▁Let	-9.30723
ot	-9.30728
▁ex	-9.30918
▁Lo	-9.30998
▁bodies	-9.31226
▁fruit	-9.3127
▁feel	-9.31339
▁die	-9.3143
▁text	-9.31478
▁deities	-9.31584
▁natives	-9.31587
▁officer	-9.31653
▁Major	-9.3174
▁answer	-9.31951
▁Vishnu	-9.32106
▁rupees	-9.32135
It	-9.32169
▁San	-9.32201
▁Bo	-9.32213
▁Yudhishthira	-9.32234
▁lower	-9.32379
that	-9.32391
per	-9.3246
▁Brahma	-9.32475
les	-9.3264
);	-9.32703
▁perform	-9.32814
▁broken	-9.32873
chi	-9.32905
▁possession	-9.32982
▁North	-9.33058
He	-9.33082
▁amongst	-9.33099
▁immediately	-9.33112
ng	-9.33235
▁married	-9.33248
▁Up	-9.33487
▁While	-9.33499
▁14	-9.33558
▁understand	-9.33605
▁Those	-9.33717
▁wise	-9.33759
▁late	-9.3388
que	-9.34155
ns	-9.34168
▁bank	-9.34181
▁fierce	-9.34206
cha	-9.34282
In	-9.34298
▁bound	-9.34304
▁Archive	-9.34383
▁destruction	-9.34424
▁goes	-9.34444
▁fast	-9.34661
▁usually	-9.34716
▁condition	-9.34885
▁success	-9.34921
▁Va	-9.35034
▁SECTION	-9.35067
▁Christian	-9.35135
▁servants	-9.35233
ure	-9.35266
ow	-9.35362
▁Al	-9.35611
▁proper	-9.3568
ol	-9.35688
▁objects	-9.35718
▁higher	-9.35953
kar	-9.35972
▁ask	-9.36164
▁d	-9.36187
▁neither	-9.3628
ver	-9.36332
po	-9.3639
▁herself	-9.36525
▁Colonel	-9.36613
▁sky	-9.3668
ble	-9.36701
▁May	-9.36703
▁speech	-9.36868
▁thirty	-9.36935
tic	-9.36982
▁portion	-9.37161
▁considerable	-9.37437
▁wall	-9.37443
▁terrible	-9.37463
▁foe	-9.376
und	-9.37683
▁Who	-9.37786
▁pain	-9.37874
▁Literary	-9.38038
▁orders	-9.38053
▁letter	-9.38061
▁danger	-9.38066
▁Great	-9.38106
▁sides	-9.38184
▁New	-9.38247
▁trade	-9.38392
by	-9.38485
▁Bar	-9.38529
▁senses	-9.38641
▁stream	-9.38649
▁East	-9.38704
▁seeing	-9.38706
▁sin	-9.38831
▁caused	-9.39039
red	-9.39179
▁receive	-9.39197
▁Di	-9.39254
▁&	-9.39557
▁birds	-9.39718
▁rich	-9.39744
▁Le	-9.39781
▁twelve	-9.39782
▁certainly	-9.39902
▁wear	-9.39928
ac	-9.40024
▁follows	-9.40097
em	-9.40121
ik	-9.40127
▁custom	-9.40143
▁rain	-9.40172
(	-9.40191
▁send	-9.40285
▁walls	-9.40325
▁makes	-9.40394
ff	-9.4045
▁endued	-9.40552
▁noble	-9.40669
ial	-9.40674
▁Se	-9.40779
▁grass	-9.40782
▁access	-9.40868
▁heavy	-9.40871
▁interest	-9.4089
▁ago	-9.40937
▁usual	-9.40955
▁principal	-9.41016
▁connection	-9.41197
ki	-9.41243
▁Rama	-9.41288
▁governor	-9.41402
so	-9.41603
▁seek	-9.4173
▁South	-9.41751
▁Th	-9.41801
▁lady	-9.41871
▁journey	-9.41879
▁temples	-9.41941
▁numerous	-9.41971
▁Ku	-9.42103
ist	-9.42223
20	-9.42366
▁Or	-9.42389
▁appearance	-9.42461
▁goddess	-9.42505
ten	-9.42563
▁entirely	-9.42607
▁note	-9.42624
▁throne	-9.42805
▁Ráma	-9.4282
▁Pandavas	-9.42844
▁priest	-9.42854
min	-9.42872
▁villages	-9.42872
▁Such	-9.42972
▁West	-9.4317
▁term	-9.43213
ER	-9.43221
tan	-9.43234
▁Indeed	-9.43646
▁leaving	-9.43692
▁property	-9.43707
▁ordinary	-9.43739
▁{	-9.43797
▁strange	-9.43933
▁prepared	-9.44086
con	-9.44199
vo	-9.44255
▁practice	-9.44264
▁Buddha	-9.44306
▁virtue	-9.44409
▁Si	-9.44448
.’	-9.44469
▁modern	-9.4454
▁agree	-9.44544
der	-9.44563
▁plain	-9.44587
▁spread	-9.4459
▁mere	-9.44624
▁opinion	-9.44651
▁claim	-9.4468
▁east	-9.44798
▁natural	-9.4484
▁Akbar	-9.44847
▁Ma	-9.44853
▁13	-9.45107
11	-9.45127
▁believed	-9.4534
V	-9.45404
▁milk	-9.45406
▁11	-9.45488
su	-9.45589
▁reign	-9.4572
18	-9.45784
▁steeds	-9.45896
▁main	-9.45926
▁enter	-9.46084
▁donations	-9.46144
▁Khán	-9.46219
▁wounded	-9.46228
▁heads	-9.46229
▁Mar	-9.46254
▁giving	-9.46296
▁Ca	-9.46302
▁Vedas	-9.46352
?”	-9.46356
tt	-9.4648
▁cried	-9.46499
▁b	-9.46519
ê	-9.46596
▁sacrifices	-9.4675
▁drink	-9.46821
▁value	-9.46844
▁middle	-9.46935
▁population	-9.46985
▁jungle	-9.4708
▁arm	-9.47103
▁flesh	-9.47227
▁looking	-9.47279
▁wrath	-9.47337
▁trademark	-9.4744
▁established	-9.47454
▁AND	-9.47547
unt	-9.47823
▁Company	-9.47958
▁tail	-9.48172
▁powerful	-9.48177
▁wide	-9.48193
▁west	-9.48195
▁information	-9.48213
▁authority	-9.48228
▁universe	-9.4835
▁pleasure	-9.48398
ee	-9.48454
▁mean	-9.48505
▁imp	-9.48509
▁whatever	-9.48542
▁personal	-9.4858
▁rise	-9.48638
▁ran	-9.4864
like	-9.48677
▁fled	-9.4873
▁Bi	-9.48804
ship	-9.48827
▁fixed	-9.48931
▁attention	-9.4904
▁Nor	-9.49123
fe	-9.49176
ī	-9.49187
▁vast	-9.49302
▁kill	-9.49315
▁quickly	-9.49376
▁cast	-9.49425
▁succeeded	-9.49425
▁rites	-9.49701
▁post	-9.49708
▁pierced	-9.4972
bha	-9.49755
▁connected	-9.49845
▁advance	-9.49877
▁Ja	-9.49967
▁French	-9.50085
▁Kan	-9.50103
▁slaves	-9.5013
▁doing	-9.50207
▁favour	-9.50232
▁pre	-9.50251
▁prowess	-9.50285
▁bed	-9.50308
▁feast	-9.5034
|	-9.50429
▁share	-9.50574
▁golden	-9.50626
▁20	-9.50936
▁rank	-9.50977
▁play	-9.51013
ham	-9.51105
▁notice	-9.51262
▁escape	-9.5131
▁mo	-9.51323
▁divine	-9.51399
▁author	-9.51457
▁extent	-9.51549
▁superior	-9.51571
▁Po	-9.51624
ab	-9.51709
▁season	-9.51846
▁ruler	-9.52107
▁shape	-9.52109
▁learned	-9.52166
▁sc	-9.52217
▁complete	-9.52412
▁save	-9.52417
ris	-9.52493
mon	-9.5259
▁region	-9.52604
▁advanced	-9.52654
see	-9.5278
▁employed	-9.52797
▁abode	-9.52927
▁breast	-9.52991
.)	-9.53054
▁broad	-9.53134
This	-9.53206
▁female	-9.53288
▁group	-9.53288
▁pro	-9.5345
▁beings	-9.53543
▁business	-9.53597
souled	-9.53603
▁Central	-9.53707
▁hours	-9.53806
▁standing	-9.53828
nu	-9.53868
▁merely	-9.53945
▁permission	-9.53963
ram	-9.53971
▁sorrow	-9.54034
▁impossible	-9.54064
▁produced	-9.5408
▁destroyed	-9.54198
▁bad	-9.54241
▁lead	-9.54274
▁bird	-9.5428
▁separate	-9.54542
▁instance	-9.54616
om	-9.54681
▁highly	-9.54693
You	-9.54721
▁instead	-9.54743
What	-9.54753
▁colour	-9.54819
▁touch	-9.54837
ned	-9.54869
ji	-9.54915
▁prevent	-9.54944
▁island	-9.55006
▁shown	-9.55119
▁grave	-9.55168
ical	-9.55374
▁accompanied	-9.55479
▁Prince	-9.5565
▁sire	-9.55732
▁happy	-9.55797
bi	-9.55849
▁provide	-9.56039
▁thrown	-9.56119
▁Brahmana	-9.56131
▁determined	-9.56286
▁Con	-9.56339
▁classes	-9.56435
▁paragraph	-9.56505
▁pp	-9.56552
▁Many	-9.56561
▁Like	-9.56602
▁attempt	-9.56675
ward	-9.56746
▁protect	-9.56852
▁centre	-9.56924
▁Pandu	-9.56925
▁sure	-9.57187
ub	-9.57193
org	-9.5728
▁greatest	-9.57329
lan	-9.57361
▁chiefs	-9.57377
▁wrong	-9.57398
▁regiment	-9.57435
▁loss	-9.57536
▁sister	-9.57554
▁Bhima	-9.57575
æ	-9.57613
ities	-9.57649
▁belief	-9.57667
▁snake	-9.57674
▁queen	-9.5768
▁ha	-9.57873
▁Alexander	-9.57896
▁joined	-9.5797
▁removed	-9.58063
▁Brahmanas	-9.5835
▁fifty	-9.58371
▁iron	-9.58393
▁fish	-9.58431
▁protected	-9.58486
▁Pra	-9.58661
▁produce	-9.58736
▁office	-9.58773
▁divided	-9.58777
▁surrounded	-9.58848
▁amount	-9.59056
▁piece	-9.59131
▁Chinese	-9.59135
▁29	-9.59155
▁coast	-9.59201
12	-9.59277
▁guard	-9.5933
▁28	-9.5943
▁Duryodhana	-9.59431
▁remains	-9.59491
▁top	-9.59545
▁march	-9.59575
▁happiness	-9.59629
▁qualities	-9.59629
▁clouds	-9.59694
ran	-9.59709
but	-9.59729
pp	-9.59797
:--	-9.59835
▁created	-9.59878
▁ocean	-9.59959
▁followers	-9.60022
ig	-9.60047
▁drawn	-9.60081
▁wisdom	-9.60125
▁inhabitants	-9.60126
▁burning	-9.60134
▁observed	-9.60223
▁Ne	-9.60224
▁associated	-9.6033
▁1,	-9.60345
▁wives	-9.60402
▁book	-9.60411
▁company	-9.60513
▁happened	-9.60627
▁devoted	-9.60879
▁adopted	-9.61013
▁cold	-9.61025
▁spring	-9.61164
▁lo	-9.61182
▁difference	-9.61214
▁Bhishma	-9.61316
king	-9.61364
▁appointed	-9.61386
▁exceedingly	-9.61391
▁height	-9.61516
ler	-9.61534
▁"'	-9.6166
30	-9.61703
wi	-9.61758
}	-9.61777
▁Master	-9.61828
▁victory	-9.61872
▁40	-9.61912
▁reply	-9.61967
▁bull	-9.62085
▁tried	-9.62101
dy	-9.62142
▁consider	-9.62179
▁v	-9.62201
las	-9.6226
▁building	-9.62348
▁reach	-9.62371
▁priests	-9.62389
▁thousands	-9.62433
▁perfect	-9.62537
all	-9.62587
▁Ro	-9.62796
▁official	-9.6281
ally	-9.62925
▁range	-9.62946
▁loud	-9.62946
▁Where	-9.62983
▁sp	-9.62995
▁ceremonies	-9.63042
▁species	-9.63042
▁fee	-9.63153
▁Not	-9.63283
ww	-9.63302
▁easily	-9.63385
▁northern	-9.63388
▁III	-9.63411
▁sought	-9.63506
▁hardly	-9.63542
▁fresh	-9.63556
▁London	-9.63567
▁princes	-9.63569
▁gifts	-9.63587
ning	-9.63592
▁ear	-9.63611
▁points	-9.63636
▁Sun	-9.63717
▁local	-9.63784
▁direction	-9.63811
▁secret	-9.63827
▁doctrine	-9.6385
▁valley	-9.6385
▁mark	-9.63957
û	-9.6409
▁sort	-9.6415
▁ta	-9.6416
▁regions	-9.64202
▁protection	-9.64211
▁Report	-9.64212
▁rock	-9.64337
rd	-9.64354
▁deity	-9.64386
▁ma	-9.64458
▁material	-9.64556
▁answered	-9.64566
▁required	-9.646
▁lying	-9.64666
▁19	-9.64751
▁marked	-9.64753
▁suddenly	-9.64938
▁greatly	-9.64997
10	-9.65047
▁cases	-9.65073
▁dog	-9.65106
▁Cha	-9.65437
IN	-9.65439
▁families	-9.65463
▁License	-9.65521
▁derived	-9.65541
▁settled	-9.65542
▁eternal	-9.65591
▁belong	-9.65693
▁figure	-9.65696
▁intelligence	-9.65696
up	-9.65703
▁celestial	-9.65744
▁ears	-9.65844
var	-9.65865
▁countries	-9.65991
▁Shah	-9.66021
22	-9.66066
▁difficulty	-9.66257
ari	-9.66265
▁throughout	-9.66736
▁presented	-9.66774
▁fallen	-9.66863
▁attached	-9.67059
▁added	-9.67135
law	-9.67164
▁hot	-9.67174
▁youth	-9.67302
▁space	-9.67349
▁accepted	-9.6742
side	-9.67428
▁simple	-9.67466
▁occupied	-9.67535
▁subjects	-9.67606
▁cattle	-9.67707
AR	-9.67826
▁destroy	-9.67904
▁distant	-9.67943
▁thine	-9.67976
her	-9.68012
▁move	-9.68122
uk	-9.68218
▁forty	-9.68388
▁marched	-9.68423
▁diverse	-9.68446
ft	-9.68494
▁mu	-9.685
▁social	-9.68543
ang	-9.6857
▁American	-9.68655
▁deer	-9.68787
▁4.	-9.68866
▁Yet	-9.6889
▁lines	-9.68917
▁feeling	-9.68935
J	-9.68958
▁During	-9.69011
▁mission	-9.69021
▁fruits	-9.69029
▁spirits	-9.69034
▁belonging	-9.69101
▁expedition	-9.69146
tur	-9.69153
bar	-9.69312
ib	-9.69325
▁Am	-9.69392
▁minister	-9.69396
▁worshipped	-9.69402
▁capable	-9.69402
▁discovered	-9.69419
av	-9.69453
▁Section	-9.6946
▁green	-9.69572
▁Emperor	-9.69637
▁provided	-9.69657
▁fighting	-9.69688
▁r	-9.69797
▁plant	-9.69802
▁news	-9.69804
▁armed	-9.69876
▁merit	-9.69929
▁famous	-9.69936
▁chance	-9.69944
▁thick	-9.69984
▁waters	-9.70097
gra	-9.70118
▁run	-9.70131
▁wonderful	-9.70149
OR	-9.70162
▁heroes	-9.70166
▁Ar	-9.70253
▁vol	-9.70311
▁host	-9.70379
▁n	-9.70557
16	-9.70557
▁passing	-9.70577
▁garden	-9.70579
▁nation	-9.70648
▁band	-9.70656
▁proved	-9.70677
▁political	-9.7068
▁Provinces	-9.70692
▁wicked	-9.70713
▁hence	-9.708
▁Ke	-9.70815
▁apparently	-9.7086
▁narrow	-9.70916
▁male	-9.70963
No	-9.70987
▁Ganges	-9.70992
ika	-9.71022
way	-9.71092
▁Un	-9.71102
ious	-9.71312
▁council	-9.71534
▁Pe	-9.71635
▁enemies	-9.71782
▁leading	-9.71962
▁nine	-9.72076
den	-9.72122
▁direct	-9.72172
fi	-9.72303
ions	-9.72361
▁sufficient	-9.72419
▁rage	-9.72466
▁relations	-9.72535
▁couple	-9.72594
▁fate	-9.72604
▁Our	-9.72714
▁broke	-9.72755
▁shore	-9.72779
ened	-9.72854
▁Europe	-9.72874
kha	-9.72884
▁section	-9.72885
▁previous	-9.72984
▁prove	-9.73024
▁stay	-9.73026
▁delight	-9.73235
▁Ch	-9.73322
▁lands	-9.73337
mar	-9.73357
▁check	-9.73398
▁grain	-9.73399
▁Par	-9.7348
ara	-9.73519
▁na	-9.73613
▁circumstances	-9.73626
▁watch	-9.73631
▁finally	-9.73677
▁behold	-9.73678
▁somewhat	-9.73709
▁represented	-9.73713
▁search	-9.73772
15	-9.73781
qui	-9.73782
iv	-9.73828
▁province	-9.73831
▁dress	-9.73889
▁unless	-9.74087
▁collection	-9.74133
▁entire	-9.74188
▁break	-9.742
▁widow	-9.74287
▁Siva	-9.74422
▁dance	-9.74451
▁interesting	-9.74537
▁crowd	-9.7455
▁roof	-9.74559
ap	-9.74599
▁territory	-9.74618
▁stands	-9.74652
▁numbers	-9.7469
ther	-9.74743
▁cross	-9.74749
▁serve	-9.74752
▁spiritual	-9.74756
▁ho	-9.74804
▁27	-9.74807
▁glad	-9.74947
▁warrior	-9.74968
▁rushed	-9.75
▁tied	-9.7505
ug	-9.75199
▁Another	-9.75199
▁hearing	-9.75254
▁oil	-9.75273
utenberg	-9.75299
We	-9.75334
▁vain	-9.75342
▁arrival	-9.75453
▁soft	-9.75515
▁description	-9.75518
▁control	-9.75538
▁showed	-9.75547
▁declared	-9.75563
▁blue	-9.75666
ras	-9.75667
▁Though	-9.75716
ava	-9.75773
▁Governor	-9.75798
▁accept	-9.75809
▁carrying	-9.75825
▁stated	-9.75919
▁explained	-9.7598
▁measure	-9.75987
ations	-9.76004
25	-9.76024
▁pride	-9.76034
▁secure	-9.76188
▁experience	-9.76295
▁status	-9.76296
▁steps	-9.76314
▁Him	-9.76396
▁study	-9.76424
▁Every	-9.76464
▁promise	-9.76645
▁t	-9.76663
▁deal	-9.76674
▁clothes	-9.76745
▁opportunity	-9.7675
▁k	-9.76754
tor	-9.76843
▁banks	-9.76857
50	-9.76865
▁policy	-9.76881
▁learn	-9.76909
▁forces	-9.77007
dhi	-9.77041
▁evidence	-9.77077
▁According	-9.77117
▁Te	-9.77119
▁fought	-9.77276
lar	-9.77321
▁sharp	-9.77362
▁tax	-9.77393
▁slay	-9.77412
▁pieces	-9.77449
▁Mu	-9.7761
▁Sanskrit	-9.77612
▁25	-9.77719
▁daily	-9.77737
▁breath	-9.77847
▁scene	-9.77913
▁opened	-9.77939
▁lotus	-9.78016
▁Ni	-9.7804
▁50	-9.78152
▁approach	-9.78213
▁labour	-9.78228
▁Rajput	-9.78344
▁community	-9.78397
▁knows	-9.78516
....	-9.78608
▁sake	-9.78622
▁John	-9.78663
▁upper	-9.78695
▁allow	-9.78712
▁sign	-9.78745
▁intended	-9.78787
▁Persian	-9.7882
▁addition	-9.78852
▁easy	-9.78928
▁spoken	-9.78945
▁using	-9.78959
▁sit	-9.78966
▁big	-9.78967
ú	-9.79035
ger	-9.79036
▁Pi	-9.79178
▁creation	-9.79413
▁darkness	-9.79416
▁po	-9.79452
iya	-9.79577
▁started	-9.79602
▁example	-9.79632
▁Lucknow	-9.79732
▁square	-9.79732
▁soldier	-9.79782
▁meditation	-9.798
▁importance	-9.79804
▁fully	-9.79822
gh	-9.79899
▁gate	-9.79983
▁enjoy	-9.80031
▁arrow	-9.8019
▁bearing	-9.80334
▁saint	-9.80394
ze	-9.8054
▁celebrated	-9.80647
aka	-9.80725
▁moved	-9.80742
▁cavalry	-9.80747
▁plan	-9.80826
AL	-9.80912
–	-9.80925
▁distribution	-9.80951
▁worthy	-9.81248
▁dream	-9.81293
▁huge	-9.81299
▁cost	-9.81322
▁trouble	-9.81398
▁empire	-9.81428
▁standard	-9.81453
▁won	-9.81548
▁slave	-9.81574
lam	-9.81653
▁Pan	-9.8173
han	-9.81846
▁exist	-9.81881
▁60	-9.81974
ex	-9.81983
General	-9.82187
▁mass	-9.82226
▁frontier	-9.82264
▁meant	-9.82333
▁image	-9.82355
▁disease	-9.82395
▁desert	-9.82398
▁pleased	-9.82459
▁affairs	-9.8249
▁weak	-9.82512
▁seat	-9.82586
▁souls	-9.82654
work	-9.82692
▁otherwise	-9.827
▁marry	-9.82788
▁rising	-9.8281
▁physical	-9.82821
▁Ab	-9.82841
▁understanding	-9.82899
▁frequently	-9.8291
▁midst	-9.82942
▁grace	-9.83064
▁flower	-9.83161
thi	-9.83215
19	-9.8324
▁offer	-9.83411
▁lie	-9.83452
ries	-9.83495
24	-9.83566
▁centuries	-9.83572
▁applied	-9.83642
▁faithful	-9.83704
▁Kuru	-9.83789
................	-9.83792
ron	-9.83802
▁Why	-9.83839
▁trust	-9.83862
▁Among	-9.83878
nk	-9.83883
▁shade	-9.83964
▁seated	-9.83995
▁owner	-9.84049
▁speed	-9.8413
--"	-9.84184
▁paper	-9.84203
▁division	-9.84237
born	-9.84241
▁seized	-9.84253
▁branch	-9.84277
ged	-9.84387
ice	-9.84394
▁wait	-9.84411
▁customs	-9.84466
▁straight	-9.84485
▁Tri	-9.84524
▁lake	-9.8458
▁thread	-9.84628
▁storm	-9.84721
▁cur	-9.84724
▁24	-9.84733
▁progress	-9.84755
▁sitting	-9.84785
▁g	-9.84858
mer	-9.84894
▁branches	-9.84907
▁Buddhist	-9.84928
Ch	-9.84935
ise	-9.84976
▁buildings	-9.85014
▁Jo	-9.85016
▁servant	-9.85033
▁ascetic	-9.85051
▁conclusion	-9.85052
ard	-9.85092
▁cool	-9.85153
▁scarcely	-9.85156
▁Earth	-9.85264
par	-9.85307
▁offerings	-9.85318
▁Before	-9.85336
▁lips	-9.85398
uc	-9.85407
▁private	-9.85482
oo	-9.85525
▁devotion	-9.85549
▁permitted	-9.85557
nt	-9.85621
▁offering	-9.85632
▁foreign	-9.8566
▁Thy	-9.85678
▁parents	-9.85717
▁ornaments	-9.85792
io	-9.85799
ala	-9.85856
▁school	-9.85864
ku	-9.85867
ear	-9.8588
▁eBook	-9.85889
not	-9.85904
ction	-9.85934
ors	-9.85969
▁gift	-9.86026
▁size	-9.86042
des	-9.86096
▁quarter	-9.86157
▁sept	-9.86161
▁reference	-9.86162
vas	-9.86288
▁festival	-9.86303
▁opposite	-9.86337
▁station	-9.86371
13	-9.86376
An	-9.86383
▁resembling	-9.86408
▁proceed	-9.86446
▁vessel	-9.86543
ill	-9.86596
▁refund	-9.86631
ite	-9.86695
▁Europeans	-9.86788
ified	-9.86869
▁consciousness	-9.86884
▁Ya	-9.86889
za	-9.86958
dh	-9.8704
▁se	-9.87076
▁style	-9.87112
▁anxious	-9.8713
▁glory	-9.87132
▁wonder	-9.87175
house	-9.87225
▁grow	-9.87302
▁ca	-9.87308
▁Queen	-9.87354
▁Lieutenant	-9.87356
▁western	-9.87381
▁tears	-9.87401
▁dry	-9.87416
▁Ga	-9.87426
ave	-9.87482
▁rate	-9.87487
▁lies	-9.87508
▁Each	-9.87517
_).	-9.87522
▁distinguished	-9.87558
au	-9.87598
wal	-9.87675
dis	-9.87682
▁copies	-9.87711
▁preceptor	-9.87711
▁stones	-9.87877
▁expected	-9.87889
▁step	-9.8791
▁woods	-9.88013
▁OR	-9.88018
cent	-9.88051
▁movement	-9.88102
▁bore	-9.88105
▁attacked	-9.88137
▁Benares	-9.8815
▁Sha	-9.88177
ped	-9.88194
▁leader	-9.88242
▁23	-9.8826
▁vow	-9.88333
▁freely	-9.88379
▁civil	-9.884
US	-9.88404
ens	-9.88437
▁Je	-9.8844
▁texts	-9.88515
▁fame	-9.88584
▁iii	-9.88608
▁formerly	-9.88648
▁safe	-9.88657
▁desirous	-9.88663
▁drew	-9.88664
▁rules	-9.88737
▁fit	-9.88742
▁explanation	-9.8881
▁Roman	-9.8881
▁curious	-9.88863
00	-9.88864
tter	-9.88941
▁absence	-9.89032
▁refused	-9.89096
▁containing	-9.89175
▁deeds	-9.89192
ative	-9.8926
▁31	-9.89324
▁refuge	-9.89327
▁dust	-9.89331
▁located	-9.89332
▁writing	-9.89359
▁bo	-9.89372
14	-9.89454
ign	-9.89475
▁sage	-9.89478
with	-9.89494
▁meeting	-9.89523
▁regular	-9.89598
▁proud	-9.89654
ping	-9.89663
▁37	-9.89695
▁cry	-9.89743
▁grant	-9.89858
▁crossed	-9.89867
▁included	-9.90013
row	-9.90053
▁pair	-9.90112
▁moral	-9.90122
▁events	-9.90219
▁attained	-9.90261
▁worlds	-9.903
▁concerning	-9.90324
▁26	-9.90325
▁Partha	-9.90333
▁reading	-9.90362
▁visited	-9.90484
▁righteous	-9.90486
▁taste	-9.905
▁efforts	-9.90502
▁l	-9.90508
And	-9.90515
▁beneath	-9.90544
▁IN	-9.90555
▁buried	-9.90594
▁Du	-9.90686
▁coins	-9.90778
▁ba	-9.90825
▁rendered	-9.90953
▁driven	-9.90967
▁Bha	-9.91008
▁southern	-9.9105
21	-9.91122
▁uncle	-9.91171
▁gr	-9.91184
▁gain	-9.9124
▁fortune	-9.91272
▁cruel	-9.91281
40	-9.91319
▁shows	-9.91364
▁Car	-9.91418
4.	-9.91428
warriors	-9.91476
tar	-9.9148
▁wrote	-9.91498
▁port	-9.91539
▁join	-9.91556
▁keeping	-9.91556
lin	-9.91567
▁Malabar	-9.91577
But	-9.9167
▁Gu	-9.91761
▁powers	-9.91766
▁admit	-9.91786
▁girls	-9.91787
▁soil	-9.91828
▁slaughter	-9.91909
▁flight	-9.91965
cu	-9.91972
▁par	-9.91986
nga	-9.91996
▁suffering	-9.92008
wan	-9.92018
▁struggle	-9.92029
▁fourth	-9.92057
).--	-9.92063
▁understood	-9.92105
If	-9.92158
▁Majesty	-9.92181
▁effort	-9.92199
▁writes	-9.92213
▁expression	-9.92222
▁Che	-9.92259
▁settlement	-9.92284
▁Ram	-9.92352
▁Ru	-9.9241
▁prosperity	-9.92414
▁towns	-9.92427
▁legend	-9.92499
▁peculiar	-9.92508
There	-9.92523
▁36	-9.92528
▁draw	-9.92643
▁unable	-9.92695
▁forehead	-9.92718
▁active	-9.92758
▁grew	-9.92796
▁contact	-9.92826
▁rebels	-9.92875
▁based	-9.92916
▁Agra	-9.92946
▁blind	-9.92946
▁tank	-9.93012
▁pot	-9.93017
▁supreme	-9.93023
▁Rishis	-9.93029
23	-9.93031
▁Sam	-9.93077
▁River	-9.932
▁justice	-9.93202
▁June	-9.93277
▁sect	-9.93278
▁attributes	-9.93285
▁attain	-9.93287
ai	-9.93293
▁heat	-9.93294
ably	-9.93307
▁inches	-9.93308
▁caught	-9.93336
▁ought	-9.93391
▁yellow	-9.93396
▁occurred	-9.93414
▁gradually	-9.93442
▁di	-9.93451
ier	-9.9347
▁ladies	-9.93493
lt	-9.93541
tas	-9.936
▁erected	-9.93667
▁Native	-9.93668
▁supply	-9.93717
▁process	-9.93737
▁Hence	-9.93799
▁retreat	-9.93836
ments	-9.93843
▁worth	-9.93862
▁mention	-9.93955
gan	-9.93957
▁distributed	-9.93978
five	-9.93992
▁21	-9.94001
▁shrine	-9.94005
▁35	-9.94042
▁holding	-9.94241
ized	-9.94248
▁knowing	-9.94318
That	-9.94463
▁Wa	-9.94498
án	-9.94613
rit	-9.94662
▁don	-9.94735
▁consists	-9.94791
car	-9.94856
▁letters	-9.94872
▁distinction	-9.9488
▁ring	-9.94888
▁occupation	-9.94979
ever	-9.95087
▁Soul	-9.95113
26	-9.95143
My	-9.95169
▁mixed	-9.95329
▁changed	-9.95345
▁Punjab	-9.95365
▁anyone	-9.95411
▁bridge	-9.9547
▁corpse	-9.95477
van	-9.95478
▁Buddhism	-9.95512
▁Rajah	-9.95612
lla	-9.95617
▁va	-9.9567
▁conquest	-9.9567
▁principle	-9.95684
▁final	-9.95733
ible	-9.95826
▁garrison	-9.95828
▁table	-9.95865
tis	-9.95867
▁grand	-9.95909
=	-9.95975
▁spent	-9.96087
▁leaf	-9.96109
▁sa	-9.96189
▁Sar	-9.96226
▁Muhammadan	-9.96271
▁treaty	-9.96357
▁fellow	-9.96396
▁districts	-9.96407
rava	-9.96427
▁universal	-9.96447
use	-9.96455
▁courage	-9.96462
▁ancestors	-9.96472
che	-9.96479
▁request	-9.96587
▁page	-9.96593
▁le	-9.96602
▁distributing	-9.96621
▁task	-9.96624
▁limbs	-9.96631
▁authorities	-9.96632
▁string	-9.96707
▁Per	-9.96712
▁tender	-9.96748
▁fail	-9.96767
ans	-9.96787
▁clearly	-9.96792
▁Two	-9.96811
▁advantage	-9.969
▁Kar	-9.9694
▁increase	-9.97025
▁cover	-9.97066
▁afflicted	-9.97084
▁threw	-9.97101
▁chapter	-9.9711
▁besides	-9.97146
▁illustrious	-9.97181
▁sum	-9.97184
▁2.	-9.97234
▁rivers	-9.97327
▁beholding	-9.97329
▁defeated	-9.97502
▁wishes	-9.97505
▁bamboo	-9.97582
▁matters	-9.9769
ner	-9.97738
▁22	-9.97792
▁treated	-9.97808
▁blow	-9.97814
▁circle	-9.97824
▁Western	-9.97865
▁boat	-9.97882
▁affection	-9.97998
lor	-9.98022
pore	-9.9803
▁Being	-9.98055
od	-9.9812
▁larger	-9.98175
▁des	-9.98201
▁popular	-9.98229
▁base	-9.98297
▁agreed	-9.98309
▁sick	-9.9838
▁pointed	-9.98395
ched	-9.98444
▁infantry	-9.98482
▁assembled	-9.9861
ko	-9.98621
17	-9.98651
▁Hu	-9.98683
▁collected	-9.98723
▁correct	-9.98784
▁silence	-9.98795
▁completely	-9.9891
▁talk	-9.98949
▁celestials	-9.98973
▁desired	-9.98978
ls	-9.99022
▁current	-9.9904
▁remarkable	-9.99051
pra	-9.99056
ip	-9.99208
▁failed	-9.9924
▁nations	-9.99414
▁wedding	-9.99429
▁Pro	-9.99455
▁alive	-9.99458
▁music	-9.99494
▁br	-9.99535
▁report	-9.99541
▁Ho	-9.99568
▁decided	-9.99623
▁presents	-9.99651
vat	-9.99668
▁weapon	-9.99715
▁increased	-9.99772
▁shadow	-9.99777
▁admitted	-9.99797
▁elder	-9.99801
▁composed	-9.99802
▁remember	-9.99854
mit	-9.99907
▁teeth	-9.99947
fa	-9.99954
med	-10.0002
▁[_	-10.0004
âr	-10.0013
▁suffer	-10.0019
▁keen	-10.0019
▁immediate	-10.0026
▁burnt	-10.0028
▁monkey	-10.003
▁running	-10.0045
▁services	-10.0061
▁tall	-10.0062
pu	-10.0067
▁Fort	-10.0071
▁38	-10.0071
▁issue	-10.0072
▁independent	-10.008
▁beheld	-10.0085
▁consideration	-10.0091
▁regiments	-10.0096
▁win	-10.0098
See	-10.0104
▁"'"	-10.0107
▁memory	-10.011
nce	-10.0111
tal	-10.0113
▁unknown	-10.0113
q	-10.0113
▁War	-10.0113
▁Indus	-10.0114
▁source	-10.0115
▁chiefly	-10.0121
▁demand	-10.0121
ay	-10.0123
▁siege	-10.0127
tro	-10.0128
Ma	-10.0133
▁wished	-10.0134
▁train	-10.0136
▁tongue	-10.0152
▁cars	-10.0155
▁degree	-10.0158
▁eating	-10.0171
▁sovereign	-10.0173
▁Fa	-10.0174
▁sentence	-10.0175
▁praise	-10.0179
▁carefully	-10.018
▁sand	-10.0182
zi	-10.0184
▁Council	-10.0185
▁auspicious	-10.0188
________________	-10.0188
▁Clive	-10.0194
▁recorded	-10.0198
az	-10.02
▁IV	-10.0201
▁39	-10.0201
▁Portuguese	-10.0202
▁smoke	-10.0202
▁figures	-10.0204
▁arose	-10.0206
▁weight	-10.0207
▁Li	-10.0208
ld	-10.0218
my	-10.0223
val	-10.0224
▁punishment	-10.0229
▁sport	-10.023
yu	-10.023
▁monkeys	-10.0233
▁younger	-10.0234
▁thunder	-10.0236
▁VI	-10.0237
▁commanded	-10.0239
▁poured	-10.0239
▁100	-10.0244
▁relation	-10.0245
▁Pu	-10.0245
▁owing	-10.0245
▁Men	-10.0245
▁hearts	-10.0247
▁throw	-10.0247
▁commander	-10.0247
X	-10.0247
râ	-10.0253
▁fl	-10.0256
▁dancing	-10.0261
▁inter	-10.0265
▁currency	-10.027
▁crown	-10.0273
ñ	-10.0274
▁defence	-10.0278
▁try	-10.0279
▁March	-10.0288
▁intelligent	-10.0291
_.--	-10.0292
▁books	-10.0292
▁introduced	-10.0293
▁method	-10.0304
▁Asia	-10.0304
▁proof	-10.0305
▁corner	-10.0308
▁assumed	-10.0308
▁rear	-10.0308
▁hostile	-10.0313
▁science	-10.0321
▁simply	-10.0321
▁taught	-10.0321
nda	-10.0323
▁observe	-10.0323
ists	-10.033
▁series	-10.033
▁heroic	-10.0333
out	-10.0336
▁performing	-10.034
▁descendants	-10.0342
which	-10.0343
▁worn	-10.0348
▁reward	-10.035
Do	-10.0364
▁adorned	-10.0367
▁phrase	-10.0372
ura	-10.0372
▁ourselves	-10.0373
▁brown	-10.0373
ley	-10.0373
▁articles	-10.0375
▁clan	-10.0377
▁likely	-10.0379
tta	-10.0381
ight	-10.0389
▁pra	-10.039
27	-10.0392
▁eBooks	-10.0394
▁Kh	-10.0395
tam	-10.0398
▁deprived	-10.0401
?'	-10.0404
shi	-10.0405
▁murder	-10.0411
armed	-10.0421
▁proportion	-10.0423
ph	-10.0425
▁performance	-10.0425
▁entrance	-10.0432
▁Court	-10.044
28	-10.0444
ea	-10.0445
has	-10.0455
▁theory	-10.046
▁blessed	-10.0483
▁angry	-10.0484
▁explain	-10.0487
▁prayer	-10.0488
▁cit	-10.0501
▁History	-10.0504
og	-10.0507
▁distinct	-10.0508
▁escaped	-10.0515
▁beside	-10.0521
▁sixty	-10.0523
▁game	-10.053
▁medium	-10.0536
▁quiet	-10.0537
▁ga	-10.0538
qu	-10.0539
▁forced	-10.0539
▁mis	-10.0539
▁equally	-10.0539
▁tradition	-10.0541
▁noise	-10.0542
▁encounter	-10.0543
▁meal	-10.0546
▁exists	-10.0552
▁causes	-10.0558
▁ka	-10.0561
▁altogether	-10.0562
▁pleasant	-10.0562
▁avoid	-10.0569
ven	-10.0571
▁walk	-10.0571
▁funeral	-10.0579
▁skin	-10.058
▁acquired	-10.0583
▁accomplished	-10.0605
▁society	-10.0605
▁cloud	-10.0607
▁thinking	-10.0613
▁roar	-10.0613
▁valuable	-10.0614
▁2,	-10.0638
▁aim	-10.0645
▁travel	-10.0645
▁false	-10.0649
▁sudden	-10.0649
▁TO	-10.0651
▁assistance	-10.0659
▁et	-10.066
AN	-10.0667
▁stage	-10.067
▁Lu	-10.0674
▁sad	-10.0675
▁Gujarát	-10.0676
▁star	-10.0686
mba	-10.0687
▁whence	-10.0688
raj	-10.0697
▁mode	-10.0697
▁anger	-10.0703
she	-10.0703
▁maintain	-10.0715
▁gained	-10.0716
▁boys	-10.0718
▁speaking	-10.0721
▁favourite	-10.0722
▁obtaining	-10.0727
▁Veda	-10.073
▁races	-10.0736
▁Desmond	-10.0737
yâ	-10.0738
▁demon	-10.0743
▁teaching	-10.0748
▁waiting	-10.0749
ster	-10.0756
▁bark	-10.0762
▁Deva	-10.0768
▁5.	-10.0771
▁Christ	-10.0771
▁splendour	-10.0782
▁shelter	-10.0782
=,	-10.0787
▁root	-10.0794
▁wanted	-10.0794
tle	-10.0795
▁conditions	-10.0802
▁Both	-10.0803
▁possess	-10.0816
▁Sal	-10.0817
end	-10.0817
yas	-10.082
▁hundreds	-10.0827
ians	-10.083
▁procession	-10.0833
▁Vedic	-10.0837
▁related	-10.0838
ong	-10.0841
▁comply	-10.0844
▁agent	-10.0846
▁shame	-10.0848
▁please	-10.0849
▁Y	-10.0849
▁regarding	-10.0852
▁details	-10.0852
▁friendly	-10.0855
▁consisting	-10.0856
▁referred	-10.0863
▁silent	-10.0863
▁sir	-10.0868
▁verse	-10.0869
▁spite	-10.0876
▁yards	-10.088
RA	-10.0886
▁da	-10.0889
▁bar	-10.0891
kin	-10.0893
▁intention	-10.0894
▁ashes	-10.0897
▁cotton	-10.0899
▁Canto	-10.0907
▁Ti	-10.0915
din	-10.0916
▁lose	-10.0916
▁police	-10.0917
▁message	-10.0917
▁falling	-10.0917
▁originally	-10.0922
▁inside	-10.0924
▁Yoga	-10.0928
▁Greek	-10.0932
▁cities	-10.0938
▁picture	-10.094
29	-10.094
▁lion	-10.0941
▁July	-10.0942
▁benefit	-10.0944
ny	-10.0946
▁eastern	-10.0947
▁cat	-10.095
▁article	-10.0959
▁sing	-10.0965
hal	-10.0971
▁loose	-10.0979
▁listen	-10.098
▁princess	-10.0984
▁Viceroy	-10.0989
▁bringing	-10.0993
▁defeat	-10.0998
his	-10.0998
das	-10.0999
▁200	-10.0999
lay	-10.1006
ina	-10.1006
▁3.	-10.1007
ES	-10.1008
▁obliged	-10.1009
▁approached	-10.1017
▁ceased	-10.1019
▁slowly	-10.1019
▁Beholding	-10.1021
gon	-10.1024
▁price	-10.1028
▁informed	-10.1029
ksha	-10.103
▁everywhere	-10.1037
▁180	-10.104
▁repeated	-10.104
▁YOU	-10.104
▁served	-10.1041
▁elements	-10.1045
▁corn	-10.1048
▁Supreme	-10.1062
▁statement	-10.1062
ual	-10.1066
▁particularly	-10.1077
▁purposes	-10.1079
▁Rishi	-10.108
▁X	-10.1082
▁32	-10.109
Sa	-10.1091
▁qua	-10.1094
▁ways	-10.1096
32	-10.1103
▁constant	-10.1109
low	-10.1109
▁truly	-10.1117
EN	-10.1118
▁cha	-10.1122
▁striking	-10.1126
▁About	-10.1129
▁becoming	-10.1134
▁committed	-10.1136
▁regards	-10.1142
▁member	-10.1147
▁captured	-10.1154
res	-10.1159
▁directly	-10.1161
▁Cawnpore	-10.1163
Be	-10.1166
garh	-10.1169
▁assume	-10.1177
wat	-10.1179
▁translation	-10.1182
▁excited	-10.1187
To	-10.1191
▁mortal	-10.1191
▁literature	-10.12
▁expressed	-10.1201
ING	-10.1202
▁August	-10.1202
▁fields	-10.1207
▁Mrs	-10.121
▁jewels	-10.1215
▁Mi	-10.1216
▁Love	-10.1217
▁ship	-10.1224
▁perfectly	-10.1229
▁nose	-10.1244
▁Carolina	-10.1247
▁remaining	-10.1249
▁passion	-10.1254
nes	-10.1255
▁level	-10.1257
▁founded	-10.1258
▁clean	-10.126
▁board	-10.1272
▁Ex	-10.1274
▁mi	-10.1274
▁ref	-10.1278
▁aside	-10.1285
let	-10.1287
▁warm	-10.1288
▁plains	-10.1291
▁glorious	-10.1294
▁uttered	-10.1297
▁severe	-10.13
▁Maha	-10.1302
▁closely	-10.1309
▁actually	-10.131
▁household	-10.132
ile	-10.1323
▁suppose	-10.1327
▁objection	-10.1327
▁results	-10.1328
ook	-10.1328
▁incapable	-10.1331
▁revenue	-10.1336
▁guide	-10.1347
▁double	-10.135
ius	-10.1369
▁fifteen	-10.137
▁parties	-10.1372
▁meat	-10.1378
▁hall	-10.1385
▁directed	-10.1392
▁promised	-10.1394
▁granted	-10.1394
▁residence	-10.1407
▁resolved	-10.1413
▁Census	-10.1416
▁dawn	-10.1417
qua	-10.1421
▁handsome	-10.1422
▁type	-10.1422
▁reduced	-10.1423
▁drive	-10.1424
mâ	-10.1428
rat	-10.1432
▁situation	-10.1435
▁friendship	-10.1438
▁terror	-10.1445
▁Ah	-10.1449
▁event	-10.1452
▁Kshatriya	-10.1452
▁pale	-10.1452
▁plants	-10.1454
▁closed	-10.1454
▁confidence	-10.1464
▁afford	-10.1465
▁shalt	-10.1474
▁rode	-10.1484
▁Tibet	-10.1485
▁safety	-10.1494
lli	-10.1497
▁penances	-10.1499
▁start	-10.1506
kan	-10.1508
▁exchange	-10.1517
35	-10.1528
pro	-10.153
▁earlier	-10.1531
deva	-10.1532
▁bent	-10.1551
▁Agni	-10.1553
AS	-10.156
1,	-10.1563
▁Tara	-10.1566
▁forget	-10.1567
▁floor	-10.1571
▁extreme	-10.1571
ates	-10.1577
▁reverence	-10.1579
▁Christians	-10.1582
▁splendid	-10.1589
▁strike	-10.1598
▁cave	-10.1604
stra	-10.1604
▁Tu	-10.1606
From	-10.1607
bul	-10.1615
▁united	-10.1616
▁rupee	-10.1619
▁beat	-10.1625
ging	-10.1628
▁skill	-10.1629
▁burn	-10.1632
▁maiden	-10.1634
ita	-10.1634
▁legs	-10.1635
▁Chief	-10.1636
▁dwelling	-10.1638
Re	-10.1638
▁China	-10.1639
How	-10.1649
▁reported	-10.165
▁Hearing	-10.1653
▁inner	-10.1657
▁th	-10.1664
▁Vai	-10.1667
▁Empire	-10.1678
▁Ali	-10.1681
hood	-10.1684
▁Society	-10.1695
▁afraid	-10.1695
▁Therefore	-10.1695
▁lover	-10.1709
▁smile	-10.1721
▁salt	-10.1722
▁blazing	-10.1725
▁gathered	-10.173
34	-10.1734
▁twice	-10.1735
room	-10.1735
▁serious	-10.1737
place	-10.1737
▁supported	-10.1741
▁recent	-10.1742
▁boon	-10.1744
4,	-10.1746
▁palm	-10.1755
▁Death	-10.1767
▁thoughts	-10.1771
▁quick	-10.1771
▁partly	-10.1774
▁represent	-10.1777
▁Har	-10.1778
▁naturally	-10.178
▁dreadful	-10.1783
▁mounted	-10.1784
▁glance	-10.1785
▁satisfied	-10.1794
▁render	-10.1795
▁education	-10.1796
ung	-10.1809
▁fly	-10.1813
▁sell	-10.1814
▁prepare	-10.1819
▁Lakshmana	-10.1824
▁dwell	-10.1829
vers	-10.1832
▁Raghu	-10.1833
▁copper	-10.1834
1.	-10.184
▁em	-10.1843
UR	-10.1845
▁du	-10.1848
▁distribute	-10.1849
▁ne	-10.1849
▁extended	-10.1854
▁learning	-10.186
▁kine	-10.1861
▁available	-10.1864
ye	-10.1866
▁list	-10.1869
▁woe	-10.1873
▁stopped	-10.1873
▁evidently	-10.1876
▁delay	-10.1879
▁succeed	-10.1881
sar	-10.1889
`	-10.1892
▁Kashmir	-10.1893
▁mosque	-10.1893
▁summer	-10.1903
▁sacrificial	-10.1904
▁forests	-10.1904
▁tu	-10.1905
vis	-10.1908
▁conflict	-10.1913
▁occasions	-10.1925
▁noted	-10.193
▁surface	-10.1933
▁Br	-10.194
▁notes	-10.1944
▁tale	-10.1945
▁Dhritarashtra	-10.1947
▁cap	-10.195
▁probable	-10.1952
▁relatives	-10.1955
▁bold	-10.1956
ân	-10.1963
▁Bhimasena	-10.1963
▁fleet	-10.1967
▁loved	-10.1976
▁touched	-10.1985
▁permanent	-10.1985
▁afternoon	-10.1993
▁rival	-10.1993
▁effects	-10.2002
tti	-10.2004
2.	-10.2005
For	-10.2012
▁limited	-10.202
ily	-10.202
▁creature	-10.2023
▁hung	-10.2028
▁trace	-10.203
▁accordance	-10.2033
▁edge	-10.2035
▁union	-10.2037
▁gentle	-10.2038
Let	-10.2041
When	-10.2053
Ka	-10.2055
33	-10.2059
▁practically	-10.2075
▁stop	-10.2077
from	-10.2084
▁Bu	-10.2085
▁seed	-10.2089
▁yield	-10.2097
▁remove	-10.2101
some	-10.2102
▁immense	-10.2104
▁descent	-10.2105
▁maintained	-10.2105
----"	-10.2107
▁getting	-10.2111
▁looks	-10.2111
▁urged	-10.2112
rt	-10.2113
▁successful	-10.2121
▁constantly	-10.2123
▁conversant	-10.2124
▁column	-10.2127
▁sold	-10.2145
31	-10.2145
▁Ju	-10.2154
▁stars	-10.2156
▁posted	-10.216
▁cease	-10.216
▁im	-10.2162
ray	-10.2162
▁apart	-10.2168
▁90	-10.2168
cho	-10.2173
▁rapidly	-10.2177
▁Pal	-10.2178
AM	-10.2178
▁entering	-10.2179
ât	-10.2184
▁familiar	-10.2186
ani	-10.2187
▁poison	-10.2187
bu	-10.219
▁actual	-10.219
▁Pri	-10.2196
▁eldest	-10.2196
▁inferior	-10.2196
▁shoulders	-10.2198
▁artillery	-10.22
▁dost	-10.2207
36	-10.2208
ag	-10.2209
hā	-10.2212
▁smaller	-10.2213
▁comfort	-10.2214
▁commenced	-10.2215
▁marks	-10.2226
âna	-10.2231
▁lamp	-10.2231
▁exactly	-10.2232
com	-10.2233
oli	-10.2236
▁stick	-10.2236
are	-10.2238
▁ideas	-10.2242
▁differ	-10.2255
▁license	-10.2269
▁divisions	-10.2276
▁bliss	-10.2276
▁sepoys	-10.2291
hur	-10.2293
▁bit	-10.2294
▁streets	-10.2299
▁desires	-10.2309
bal	-10.2314
▁Most	-10.2315
▁lovely	-10.2316
hâ	-10.2319
ach	-10.2322
▁growing	-10.2322
▁Still	-10.2322
▁America	-10.2323
!'	-10.2329
tin	-10.2333
▁suffered	-10.2333
▁Kurus	-10.2335
▁bare	-10.2337
▁33	-10.2337
dra	-10.2339
▁contain	-10.2342
▁freedom	-10.2342
▁Sikhs	-10.2346
▁reality	-10.2349
▁Rá	-10.2349
▁treatment	-10.2352
▁1,6	-10.2352
▁vows	-10.2358
▁credit	-10.2361
▁mud	-10.2367
▁furnished	-10.2369
▁rite	-10.237
▁pious	-10.2371
▁possibly	-10.2372
▁pretty	-10.2372
shed	-10.2374
▁noticed	-10.238
kas	-10.2387
▁lu	-10.2387
ell	-10.2398
uff	-10.2399
▁slight	-10.2407
60	-10.2409
▁slew	-10.2414
▁wilt	-10.2414
nti	-10.2415
▁dressed	-10.2427
▁operations	-10.2432
▁giant	-10.2434
▁75	-10.2437
ban	-10.2439
▁finding	-10.2441
▁freed	-10.2444
▁firm	-10.2449
▁exception	-10.2451
▁impression	-10.2458
▁national	-10.2467
De	-10.2467
▁fond	-10.2467
▁roots	-10.2468
▁Smith	-10.2468
fer	-10.2472
ks	-10.2474
▁issued	-10.2476
▁descended	-10.248
▁essential	-10.248
▁staff	-10.2487
field	-10.2488
▁mad	-10.2502
ree	-10.2503
70	-10.2508
▁tent	-10.2509
▁45	-10.2514
▁recently	-10.2517
▁arranged	-10.2517
who	-10.2518
▁begin	-10.252
▁Vol	-10.2522
▁September	-10.2532
▁opening	-10.2534
ep	-10.2537
▁House	-10.2538
light	-10.254
four	-10.254
▁dynasty	-10.254
▁bi	-10.2541
▁attend	-10.2543
▁deceased	-10.2551
▁measures	-10.2552
ada	-10.2558
cor	-10.257
▁ignorance	-10.2572
▁record	-10.2578
▁fill	-10.2586
▁faces	-10.2588
▁scriptures	-10.2588
▁quarrel	-10.2594
▁Yama	-10.2604
▁Tamil	-10.2606
ric	-10.2609
wood	-10.261
ised	-10.2611
▁hunting	-10.2612
▁islands	-10.2612
▁mail	-10.2614
▁misery	-10.2615
▁tomb	-10.2621
▁gun	-10.2623
ncy	-10.2629
hra	-10.263
▁pan	-10.2632
▁Pat	-10.2632
▁Muhammad	-10.2633
▁mile	-10.2635
▁exogamous	-10.2636
▁mace	-10.2646
pt	-10.2652
▁righteousness	-10.2653
▁variety	-10.2658
▁dinner	-10.2669
▁April	-10.267
▁relief	-10.2671
▁reaching	-10.2673
▁ja	-10.2676
cle	-10.2677
▁vessels	-10.2684
lia	-10.2685
▁beasts	-10.2689
ED	-10.2692
▁fashion	-10.2695
7.	-10.2697
▁Rajputs	-10.27
▁Egypt	-10.2703
cur	-10.2704
°	-10.2712
▁neighbourhood	-10.2712
kara	-10.2713
▁pray	-10.2715
▁Oh	-10.2717
▁features	-10.2719
▁ft	-10.2728
▁song	-10.2735
▁Mah	-10.274
▁Rao	-10.2741
▁William	-10.2746
▁Mission	-10.2746
▁li	-10.275
▁abandoned	-10.275
▁bitter	-10.2751
dan	-10.2756
▁development	-10.2756
▁pa	-10.2757
▁dangerous	-10.2759
▁inscription	-10.2762
▁Kha	-10.2763
▁thyself	-10.2768
▁mental	-10.277
▁ni	-10.277
aw	-10.2771
▁mar	-10.2771
▁views	-10.2772
▁Sâ	-10.2776
▁70	-10.2787
▁bones	-10.2793
▁bosom	-10.2799
▁brass	-10.2799
▁scattered	-10.2803
▁quarters	-10.2805
▁necessity	-10.2809
ches	-10.281
▁railway	-10.281
▁coin	-10.281
▁ornament	-10.2811
9.	-10.2812
you	-10.2815
▁80	-10.2827
▁Manu	-10.2828
▁enjoyment	-10.2831
▁scale	-10.2832
▁week	-10.2838
ple	-10.284
▁Professor	-10.2842
▁administration	-10.2842
▁employ	-10.2843
was	-10.2845
.=—	-10.2846
▁serpent	-10.285
▁faint	-10.285
▁Regiment	-10.2853
tâ	-10.286
▁volume	-10.2864
▁require	-10.287
▁Bas	-10.2871
ou	-10.2871
▁£	-10.2872
Go	-10.2872
▁NO	-10.2876
▁Can	-10.288
▁gu	-10.2884
wn	-10.2885
▁nest	-10.2887
▁drove	-10.2897
▁wings	-10.2904
▁treasure	-10.2906
rā	-10.2906
▁sugar	-10.2909
▁discover	-10.2925
ator	-10.2934
.—	-10.2934
▁borne	-10.2936
▁occasionally	-10.2939
▁liquor	-10.2941
▁minutes	-10.2942
▁health	-10.2942
▁fa	-10.2944
▁provinces	-10.2945
▁El	-10.2948
▁provisions	-10.2955
▁difficulties	-10.2955
▁Act	-10.296
▁displaying	-10.2961
▁display	-10.2961
▁Lahore	-10.2963
▁quality	-10.2963
▁District	-10.2973
▁store	-10.2974
▁Oude	-10.2975
39	-10.2976
▁actions	-10.2983
▁Hari	-10.2986
▁Kshatriyas	-10.2988
lis	-10.299
▁tr	-10.2996
ey	-10.2997
ering	-10.2998
ces	-10.2999
▁gallant	-10.3006
▁judge	-10.3006
▁conquered	-10.301
▁butter	-10.301
ár	-10.3013
▁contrary	-10.3019
▁retired	-10.3023
▁Dh	-10.3027
rate	-10.3028
▁winter	-10.3033
EL	-10.3033
▁volunteers	-10.3035
▁pressed	-10.3035
▁route	-10.3039
▁era	-10.304
▁requirements	-10.3042
▁elsewhere	-10.3042
ick	-10.3042
▁saved	-10.3048
▁belonged	-10.3049
▁Heaven	-10.3052
▁precious	-10.3053
▁wooden	-10.3061
▁virtuous	-10.3064
▁[10	-10.3065
IS	-10.3069
▁captain	-10.3075
▁infinite	-10.3075
▁shut	-10.3077
▁ball	-10.308
▁succession	-10.3081
▁bears	-10.3083
▁speedily	-10.3087
▁42	-10.3088
▁discussion	-10.3089
▁dread	-10.3093
nâ	-10.3095
▁sheep	-10.3096
▁heir	-10.3098
▁dare	-10.3098
god	-10.31
yan	-10.3101
▁ch	-10.3102
▁sway	-10.3103
▁expect	-10.3106
▁gross	-10.3108
▁millions	-10.3109
▁duly	-10.3117
▁acquainted	-10.3118
▁cup	-10.3128
▁devil	-10.3133
idenote	-10.3134
▁published	-10.3137
▁largely	-10.314
nam	-10.3146
yi	-10.3149
▁continue	-10.3151
ô	-10.3152
▁gl	-10.3158
els	-10.3158
▁frame	-10.3165
ND	-10.3166
▁walked	-10.3166
▁design	-10.3178
▁occur	-10.3188
clock	-10.319
▁Sri	-10.3193
▁rope	-10.3203
jo	-10.3204
▁solicit	-10.3214
▁ride	-10.3214
▁attended	-10.3217
san	-10.3217
▁version	-10.3222
gha	-10.3223
nar	-10.3226
▁disappeared	-10.3226
uri	-10.3228
gre	-10.3229
▁Pur	-10.323
▁Through	-10.3234
▁absolutely	-10.3235
▁reform	-10.3237
▁perception	-10.3246
▁today	-10.3258
▁White	-10.326
▁paying	-10.3262
▁distress	-10.3263
▁eaten	-10.3267
▁cocoanut	-10.3267
.1	-10.3268
▁existing	-10.3275
xi	-10.3275
~	-10.3279
▁Although	-10.3279
rá	-10.3279
rr	-10.3285
▁questions	-10.3287
▁philosophy	-10.329
ama	-10.3294
▁approaching	-10.3297
▁Kal	-10.33
▁Next	-10.3301
▁burst	-10.3301
45	-10.3306
ude	-10.3308
▁decked	-10.3309
▁quantity	-10.3313
▁dying	-10.3313
Oh	-10.3314
▁waist	-10.3314
▁poet	-10.3318
▁hut	-10.332
▁repair	-10.332
▁48	-10.3325
▁snakes	-10.3327
▁pe	-10.3327
pr	-10.3329
yam	-10.3333
ium	-10.3338
vara	-10.3339
ification	-10.3346
▁raise	-10.3347
▁41	-10.335
▁returning	-10.3353
▁slayer	-10.3354
▁Sûtra	-10.3355
.1.	-10.3355
vâ	-10.3361
▁fever	-10.3362
▁pour	-10.3368
▁welcome	-10.337
pati	-10.337
▁arrangements	-10.3372
▁wound	-10.3374
▁44	-10.3378
▁hi	-10.338
▁format	-10.3381
▁tribute	-10.3382
▁Sahib	-10.3385
3.	-10.3388
pen	-10.3389
▁domestic	-10.3394
▁flag	-10.3394
▁marble	-10.3394
▁October	-10.3395
▁Kunti	-10.3396
▁Gazetteer	-10.3397
ars	-10.3399
▁add	-10.3402
▁84	-10.3405
ira	-10.3408
can	-10.3409
▁calm	-10.3411
▁symbol	-10.3413
▁Persia	-10.3414
▁properly	-10.3417
▁vital	-10.3419
Project	-10.3431
▁exact	-10.3433
▁manifest	-10.3434
int	-10.3438
▁finished	-10.3439
▁exercise	-10.344
Ba	-10.3445
▁ver	-10.3449
▁cries	-10.3454
▁watched	-10.3455
▁betel	-10.3461
▁stock	-10.3464
▁carriage	-10.3465
▁element	-10.3473
▁total	-10.3474
▁minute	-10.3474
▁activity	-10.3475
▁However	-10.3476
▁utter	-10.3482
▁53	-10.3483
▁capture	-10.3486
▁compelled	-10.3487
▁Bhu	-10.3492
▁sinful	-10.3492
▁frequent	-10.3492
▁communication	-10.3498
▁proposed	-10.3505
ind	-10.3507
▁rays	-10.3511
▁flame	-10.3512
▁contained	-10.3517
▁prisoners	-10.3517
oc	-10.3521
SE	-10.3523
▁forgotten	-10.3524
▁signs	-10.3531
▁street	-10.3533
▁av	-10.3539
▁fault	-10.3542
▁savage	-10.3557
▁departed	-10.3557
▁Christianity	-10.3564
▁laughed	-10.3564
▁feelings	-10.3571
▁violence	-10.3571
▁demons	-10.3571
▁Ve	-10.3574
▁Again	-10.3575
ges	-10.3577
▁Only	-10.3579
▁boats	-10.3583
pal	-10.3584
▁Hinduism	-10.3589
▁arch	-10.3589
▁external	-10.3592
▁FOR	-10.3597
▁toward	-10.3601
▁72	-10.3601
▁legal	-10.3604
▁curse	-10.3611
lus	-10.3612
hana	-10.3613
▁vision	-10.3616
▁holder	-10.3619
King	-10.3623
put	-10.3625
▁detail	-10.3627
▁cultivation	-10.3628
▁Ban	-10.3628
▁December	-10.3642
rus	-10.3644
▁facts	-10.3646
38	-10.3651
▁offspring	-10.3651
IC	-10.3652
▁cent	-10.3652
ade	-10.3652
▁January	-10.3653
▁Law	-10.3658
known	-10.3662
▁narrative	-10.3663
▁providing	-10.3663
▁cooked	-10.3665
6.	-10.3665
.--=	-10.3673
▁Northern	-10.3676
nic	-10.3685
▁uniform	-10.3687
▁Gandhi	-10.3688
ust	-10.3688
pot	-10.3693
▁Sultan	-10.3699
▁Upon	-10.3708
▁Dis	-10.371
▁summit	-10.3712
▁calling	-10.3712
▁convert	-10.3719
8.	-10.372
ability	-10.3725
ons	-10.3731
▁situated	-10.3735
▁offence	-10.3736
▁edition	-10.3739
▁church	-10.374
▁leaders	-10.3742
▁Cor	-10.3742
▁harm	-10.3747
▁flat	-10.3749
▁trans	-10.3756
▁conversation	-10.3759
▁emperor	-10.3759
▁receiving	-10.3759
▁metal	-10.3762
▁Lal	-10.3766
▁ceremonial	-10.3771
▁pursuit	-10.3771
ked	-10.3774
41	-10.3778
▁ra	-10.3779
ali	-10.3781
▁weather	-10.3783
▁accordingly	-10.3783
▁border	-10.3788
▁seq	-10.3788
há	-10.3792
▁belongs	-10.3798
ula	-10.3804
▁additional	-10.3809
▁lot	-10.3815
mal	-10.3817
▁remembered	-10.3823
▁47	-10.3828
▁waited	-10.3829
ew	-10.3831
▁64	-10.3839
sses	-10.3842
▁drawing	-10.3843
▁earliest	-10.3843
▁sprang	-10.3844
▁November	-10.3845
▁occurs	-10.3852
▁Dhananjaya	-10.3855
▁lofty	-10.3855
▁voyage	-10.3855
▁pen	-10.3856
▁existed	-10.3867
ants	-10.387
▁Without	-10.3871
▁companions	-10.3878
▁visible	-10.3879
37	-10.3884
▁shoulder	-10.3888
▁write	-10.389
▁den	-10.3893
▁interests	-10.3896
▁ut	-10.3898
▁tea	-10.3901
▁surrounding	-10.3902
▁moving	-10.3904
▁Bal	-10.3904
▁thin	-10.3906
▁Eastern	-10.3907
tus	-10.3909
▁Soma	-10.3909
tes	-10.3914
▁su	-10.3916
ker	-10.392
FN	-10.3925
▁invited	-10.3925
▁thence	-10.3928
▁Cr	-10.3928
._--	-10.3931
rous	-10.3936
▁mistake	-10.3944
▁Life	-10.3944
nas	-10.3945
▁suggested	-10.3945
Why	-10.3945
RE	-10.3946
▁daughters	-10.3948
▁chariot	-10.3952
▁Scripture	-10.3953
▁Horse	-10.3954
▁showing	-10.396
▁fingers	-10.3962
▁concerned	-10.3968
▁suit	-10.3977
▁si	-10.3978
▁establishment	-10.3983
rk	-10.3987
▁fortress	-10.3991
▁hole	-10.3998
▁altar	-10.4002
▁grey	-10.4002
Yes	-10.4003
ese	-10.4006
▁merchant	-10.4011
▁mutiny	-10.4014
▁choose	-10.4014
▁73	-10.4016
operation	-10.4018
▁54	-10.4022
yo	-10.4022
▁grown	-10.4023
They	-10.4029
▁missionary	-10.4029
▁ve	-10.4032
▁hidden	-10.4039
▁flood	-10.4039
▁habit	-10.4044
▁buffalo	-10.4045
▁turning	-10.405
headed	-10.4055
▁snow	-10.4055
▁Ceylon	-10.4065
▁4,	-10.4066
▁useful	-10.4068
▁increasing	-10.4076
▁area	-10.408
▁displayed	-10.4081
▁ideal	-10.4082
▁rocks	-10.4084
▁appeal	-10.4085
▁sins	-10.4086
▁graceful	-10.4087
ide	-10.4087
▁central	-10.4088
▁passes	-10.4088
▁Para	-10.4094
_),	-10.4094
vel	-10.4096
▁officials	-10.4104
▁rough	-10.4108
pan	-10.4109
ugh	-10.4111
▁Sp	-10.4113
ndi	-10.4116
▁fired	-10.4125
▁surprise	-10.4127
▁preserve	-10.4127
▁43	-10.4128
▁fifth	-10.413
▁separated	-10.4131
▁lodge	-10.4138
nch	-10.4144
uch	-10.4147
▁problem	-10.415
▁honor	-10.415
▁career	-10.4161
▁advice	-10.4163
▁stories	-10.4163
▁Rudra	-10.4163
▁restored	-10.4164
▁Under	-10.4164
▁Besides	-10.4175
▁resist	-10.4186
▁bag	-10.4186
▁rare	-10.4186
▁opposed	-10.4186
▁Red	-10.4186
▁flying	-10.4189
cal	-10.4191
▁Island	-10.4191
▁Z	-10.4196
lim	-10.4198
▁preserved	-10.4199
▁quoted	-10.4199
▁groups	-10.42
▁pillars	-10.4206
time	-10.4207
▁plunder	-10.4211
▁Black	-10.4215
▁passages	-10.4221
▁images	-10.4221
▁confusion	-10.4225
▁revolt	-10.4225
▁naked	-10.4226
▁Gar	-10.4227
▁Gonds	-10.4235
▁scheme	-10.4238
TH	-10.4242
▁deeply	-10.4243
▁Once	-10.425
▁aspect	-10.425
▁powder	-10.425
▁detachment	-10.4253
▁hide	-10.4254
▁Com	-10.4255
▁generations	-10.4256
mor	-10.4261
▁Ganga	-10.4261
▁Gond	-10.4275
▁recognised	-10.4276
43	-10.4276
east	-10.4278
▁historical	-10.428
▁proceeding	-10.4281
rah	-10.4282
ood	-10.4283
▁rifle	-10.4288
▁Beg	-10.429
▁/	-10.429
▁substance	-10.4292
▁Mor	-10.4296
▁74	-10.4301
▁refuse	-10.4304
▁address	-10.4308
▁Sitā	-10.4314
▁holds	-10.4316
▁Hindoo	-10.4324
▁reasons	-10.4327
▁comp	-10.4328
ute	-10.433
▁delighted	-10.4331
ii	-10.4339
▁clay	-10.4341
▁eager	-10.4343
▁Royal	-10.4344
▁deed	-10.435
ju	-10.4352
HA	-10.4353
▁whenever	-10.4359
▁charm	-10.4359
▁minds	-10.4361
▁Muhammadans	-10.4361
▁Kali	-10.4365
▁Ri	-10.4369
▁leads	-10.4372
▁slaying	-10.4373
▁anxiety	-10.4377
▁Tibetans	-10.4381
▁apply	-10.4381
pat	-10.4383
▁Sikh	-10.4386
▁Telugu	-10.4391
bat	-10.4393
▁Mala	-10.4396
▁trying	-10.4398
▁dropped	-10.4403
▁ascetics	-10.4414
▁hell	-10.4414
▁intellectual	-10.4416
▁awful	-10.4417
▁agreeable	-10.4422
LA	-10.4423
▁Ká	-10.4424
ora	-10.4424
division	-10.4427
▁instances	-10.4434
▁silk	-10.4439
▁extremely	-10.4439
uck	-10.4443
hr	-10.4443
▁78	-10.4445
▁Radha	-10.4447
▁ruled	-10.4451
▁assault	-10.4454
▁mutineers	-10.4454
▁prayers	-10.4464
▁depend	-10.4465
▁61	-10.4469
▁drinking	-10.4471
As	-10.4479
_.--(	-10.4481
▁arise	-10.4485
▁fatal	-10.4486
▁fed	-10.4492
▁necessarily	-10.4493
▁ranks	-10.4493
▁ages	-10.4506
▁En	-10.4509
▁contains	-10.451
▁writer	-10.4511
▁cook	-10.4516
▁characteristic	-10.4516
rang	-10.4519
eyed	-10.452
▁bathe	-10.4523
▁Brâhman	-10.4525
IES	-10.4527
▁falls	-10.4527
hai	-10.453
▁rulers	-10.4531
▁patient	-10.4532
▁Satyaki	-10.4532
▁collect	-10.4537
▁helpless	-10.4542
mas	-10.4544
▁growth	-10.4547
▁Father	-10.4549
▁Raj	-10.4554
▁Allahabad	-10.4558
▁Southern	-10.4558
west	-10.4561
▁Ki	-10.4562
▁wearing	-10.4568
▁Jam	-10.4569
▁supplied	-10.4571
▁shed	-10.4572
ock	-10.4573
▁crops	-10.4577
44	-10.4584
▁retain	-10.4592
istic	-10.4592
this	-10.4593
▁sandal	-10.4595
▁working	-10.4595
▁hermit	-10.4595
▁extensive	-10.4597
▁grandson	-10.4598
two	-10.46
▁fur	-10.4601
avi	-10.4602
▁calls	-10.4603
▁witness	-10.4606
▁crime	-10.4607
sena	-10.4608
▁Had	-10.4608
▁Pre	-10.4609
▁bottom	-10.461
▁arrive	-10.4612
▁weeks	-10.4615
▁Rs	-10.4619
▁inform	-10.4621
▁compliance	-10.4623
▁prey	-10.4624
▁Rev	-10.4626
:—	-10.4626
▁setting	-10.4627
▁despatched	-10.4628
▁Hawke	-10.4629
Ha	-10.4636
▁commentator	-10.4636
80	-10.4641
▁departure	-10.465
42	-10.4653
mma	-10.4661
▁enormous	-10.4662
▁anywhere	-10.4669
▁59	-10.467
▁defect	-10.4674
▁rat	-10.4675
▁***	-10.4675
▁seldom	-10.4675
▁content	-10.4678
▁stranger	-10.4682
▁ruins	-10.4682
▁consent	-10.4683
▁cutting	-10.4685
▁wine	-10.4691
▁incident	-10.4701
▁judgment	-10.4702
▁doubtful	-10.4702
tive	-10.4708
▁confined	-10.4709
▁definite	-10.4715
▁Henry	-10.4715
▁LI	-10.4723
fully	-10.4724
mu	-10.4725
▁gratified	-10.4728
aries	-10.473
▁pursued	-10.4733
▁sigh	-10.4733
▁MA	-10.4734
ata	-10.4738
▁happen	-10.474
▁fees	-10.4747
ening	-10.475
ology	-10.4752
▁52	-10.4752
iyan	-10.4752
▁guests	-10.4754
▁insult	-10.4755
▁pity	-10.4763
▁developed	-10.4771
▁assured	-10.4775
▁ignorant	-10.4781
▁counsel	-10.4782
▁trunk	-10.4782
_;	-10.4784
▁attitude	-10.4785
ū	-10.4785
▁coat	-10.4789
▁disc	-10.4789
▁editions	-10.479
ksh	-10.4794
▁slow	-10.4795
▁careful	-10.4798
▁effected	-10.4807
port	-10.4809
looking	-10.4814
general	-10.4814
▁infant	-10.482
▁wandering	-10.4821
▁Lhasa	-10.4821
▁quietly	-10.4821
▁shower	-10.4823
▁mount	-10.4824
▁armies	-10.4824
iz	-10.4824
▁Sat	-10.4824
▁gardens	-10.4827
▁depart	-10.4841
▁singing	-10.4842
▁schools	-10.4842
thro	-10.4842
▁evident	-10.4844
▁suspicion	-10.4848
▁65	-10.4848
▁site	-10.4849
▁Kol	-10.485
▁surely	-10.4851
▁completed	-10.4856
had	-10.4857
▁contract	-10.4862
▁Your	-10.4869
îr	-10.4872
▁opposition	-10.4875
iva	-10.4879
ṇ	-10.4882
▁179	-10.4884
▁Rana	-10.489
▁magic	-10.4896
well	-10.4899
▁compared	-10.49
▁methods	-10.49
▁Israel	-10.4901
▁throat	-10.4901
▁finger	-10.4905
▁wheel	-10.4911
▁begun	-10.4918
ias	-10.4919
▁primitive	-10.4928
▁putting	-10.4929
▁heavenly	-10.4939
▁whilst	-10.4942
▁Sometimes	-10.4942
LE	-10.4945
▁goat	-10.4946
ient	-10.4946
▁victim	-10.4946
▁express	-10.495
▁deserted	-10.4955
▁Church	-10.4955
▁charioteer	-10.4955
▁spake	-10.4956
Who	-10.4957
▁66	-10.4967
▁Thomas	-10.4969
▁test	-10.4969
bh	-10.4972
▁op	-10.4975
ON	-10.4975
char	-10.4978
▁Cu	-10.4981
▁escort	-10.4982
▁ends	-10.499
▁brief	-10.4992
▁barber	-10.4998
vid	-10.5004
▁Son	-10.5007
gni	-10.5008
▁campaign	-10.501
▁consisted	-10.5011
▁46	-10.502
▁brings	-10.5023
▁York	-10.5023
▁lightning	-10.5029
▁expense	-10.5029
▁chest	-10.503
▁Char	-10.5031
▁driver	-10.5031
ttu	-10.5036
▁commonly	-10.5037
▁Lawrence	-10.5037
ize	-10.5037
▁Temple	-10.505
▁Just	-10.506
▁turban	-10.5064
▁enjoyed	-10.5065
▁Gra	-10.5067
▁assist	-10.5068
▁Its	-10.5072
▁Egyptian	-10.5075
▁pit	-10.5078
▁empty	-10.5078
▁prisoner	-10.5079
▁chain	-10.5084
▁burned	-10.5089
▁exile	-10.509
▁cheer	-10.5091
▁entity	-10.5091
warrior	-10.5093
era	-10.5096
mat	-10.5101
▁principles	-10.5103
▁match	-10.5105
▁risk	-10.5105
▁civilization	-10.5105
vati	-10.5109
▁gates	-10.5112
morrow	-10.5113
▁dignity	-10.5119
▁Campbell	-10.5119
▁interior	-10.5119
▁Dar	-10.5121
▁limitation	-10.5124
hand	-10.5127
▁Mal	-10.5128
pura	-10.5128
how	-10.513
▁beloved	-10.5133
▁alarm	-10.5133
▁motion	-10.5134
▁February	-10.5136
▁saints	-10.5136
▁58	-10.5139
▁declare	-10.5141
▁solemn	-10.5143
▁ridge	-10.5145
▁Draupadi	-10.5146
▁pal	-10.5148
▁adopt	-10.5155
▁jackal	-10.516
lit	-10.5167
So	-10.5171
▁despair	-10.5174
▁flow	-10.5178
head	-10.5179
▁Asiatic	-10.5179
Then	-10.5181
46	-10.5185
▁sending	-10.5188
▁yourself	-10.519
▁Sea	-10.5194
▁grove	-10.5198
▁invasion	-10.5202
▁69	-10.5203
▁Information	-10.5207
▁humble	-10.5208
▁signal	-10.5209
▁tells	-10.521
▁alike	-10.521
▁buy	-10.5225
▁subsequent	-10.5226
▁luck	-10.5226
▁brilliant	-10.5229
▁Little	-10.5233
▁wholly	-10.5233
▁strongly	-10.5238
▁Asuras	-10.5239
▁sal	-10.5239
▁Sub	-10.524
▁relative	-10.524
▁inscriptions	-10.525
▁app	-10.5253
▁strain	-10.5255
▁49	-10.5257
▁Spirit	-10.5257
▁choice	-10.5258
▁roads	-10.5258
▁Thereupon	-10.5259
▁attempted	-10.5259
▁hue	-10.5265
▁ere	-10.5272
▁rush	-10.5275
▁folk	-10.5276
ground	-10.5277
▁teach	-10.5279
▁wave	-10.5285
▁rude	-10.5287
▁painted	-10.5291
▁disciples	-10.5293
▁dogs	-10.5295
act	-10.5296
▁directions	-10.5299
▁Secretary	-10.5299
▁77	-10.5303
▁ended	-10.5303
▁spend	-10.5307
▁ships	-10.5308
HI	-10.5308
▁instant	-10.531
▁recognized	-10.5312
▁assigned	-10.5312
▁extraordinary	-10.5313
▁Meerut	-10.5313
▁enable	-10.5314
▁Mon	-10.5317
▁honoured	-10.5319
On	-10.532
lum	-10.5321
▁Commissioner	-10.5324
tum	-10.5331
▁55	-10.5331
▁Chand	-10.5337
▁plough	-10.5341
▁resolution	-10.5342
▁repeatedly	-10.5354
▁array	-10.5356
▁selected	-10.5357
▁refer	-10.536
▁accomplish	-10.536
called	-10.5361
▁copying	-10.5363
rie	-10.5364
▁accounts	-10.5365
▁advancing	-10.5369
▁swords	-10.537
▁net	-10.5375
▁depends	-10.5376
▁dense	-10.5376
▁doctor	-10.5376
▁records	-10.5381
▁Soon	-10.5382
▁kindly	-10.5383
post	-10.5386
uka	-10.5387
▁para	-10.5389
ake	-10.539
▁Well	-10.5391
▁payment	-10.5391
Thou	-10.5392
▁perceived	-10.5401
lore	-10.5401
▁consequently	-10.5404
▁3,	-10.5407
▁previously	-10.5409
far	-10.5409
▁Brigadier	-10.5412
▁printed	-10.5413
ress	-10.5415
▁guilty	-10.5416
▁conception	-10.5417
▁changes	-10.5424
caste	-10.5427
▁obey	-10.5427
ś	-10.5428
▁beast	-10.5429
▁triumph	-10.5439
▁burden	-10.544
▁fairly	-10.5449
▁Maratha	-10.5455
AT	-10.5456
65	-10.5459
▁market	-10.546
▁mat	-10.546
▁govern	-10.5463
▁Far	-10.5468
▁steep	-10.5469
▁colony	-10.5469
▁showers	-10.547
▁companion	-10.547
abad	-10.547
▁Vasudeva	-10.5471
▁basis	-10.5471
▁sixteen	-10.5475
▁defend	-10.548
▁imperial	-10.5483
▁56	-10.5485
▁sail	-10.5485
▁Pandava	-10.5486
▁Lama	-10.5488
▁profession	-10.5496
▁chosen	-10.5503
▁James	-10.5505
▁swift	-10.5508
55	-10.5511
▁stern	-10.5512
▁Time	-10.5517
▁expenses	-10.5519
▁annual	-10.5523
ob	-10.5523
▁commercial	-10.5526
▁David	-10.5527
▁fore	-10.5529
▁pu	-10.5535
▁runs	-10.5535
cious	-10.5536
▁movements	-10.554
▁hu	-10.5546
▁refers	-10.5546
cy	-10.5546
▁thoroughly	-10.5548
▁wi	-10.5553
▁Meanwhile	-10.5554
▁reverse	-10.5557
▁idol	-10.556
▁seize	-10.556
Bhishma	-10.5563
dia	-10.5568
▁liberty	-10.5569
▁creating	-10.5569
▁habits	-10.5571
▁First	-10.5573
▁rapid	-10.5578
▁leg	-10.5582
▁strip	-10.5583
▁catch	-10.5585
▁Das	-10.5585
▁KING	-10.5586
▁tigers	-10.5589
▁bid	-10.559
▁sur	-10.5592
▁claims	-10.5593
▁distinguish	-10.5595
▁worse	-10.5598
▁doth	-10.5605
illa	-10.5612
.3.	-10.5614
▁shaft	-10.5618
▁dart	-10.562
▁heap	-10.5621
rum	-10.5622
▁conducted	-10.5623
ending	-10.5624
▁63	-10.5626
▁lighted	-10.5626
▁1,7	-10.5627
▁internal	-10.5627
▁spear	-10.5628
▁exposed	-10.5631
▁worked	-10.5633
▁Head	-10.5638
▁57	-10.5638
▁majority	-10.5642
▁Nature	-10.5642
▁washed	-10.5648
oon	-10.5649
stone	-10.565
▁Ye	-10.5653
ken	-10.5655
▁desperate	-10.5655
▁Chi	-10.5657
▁Tell	-10.5657
▁outer	-10.5658
▁merchants	-10.5658
▁file	-10.5663
ola	-10.5668
▁assembly	-10.567
▁fool	-10.567
▁horns	-10.5671
▁killing	-10.5673
▁Since	-10.5675
tree	-10.5676
▁Old	-10.568
▁jewel	-10.5681
•	-10.5684
▁thither	-10.5684
▁disposition	-10.5685
▁cru	-10.5687
▁played	-10.5691
▁eleven	-10.5691
▁ruin	-10.5693
ez	-10.5695
▁remarks	-10.5696
▁Moor	-10.5698
▁preceding	-10.5699
▁remote	-10.5699
bed	-10.5703
▁Will	-10.571
aga	-10.5711
af	-10.5712
▁PROJECT	-10.5714
▁ANY	-10.5714
▁fourteen	-10.5721
▁hoped	-10.5728
what	-10.5728
▁150	-10.573
off	-10.5732
▁Col	-10.5733
▁Mer	-10.5734
▁offices	-10.574
don	-10.5742
▁GUTENBERG	-10.5743
▁boast	-10.5743
▁online	-10.5743
▁pole	-10.5747
▁gems	-10.5749
gal	-10.575
▁68	-10.575
fin	-10.5751
▁secured	-10.5752
▁sufficiently	-10.5754
under	-10.5756
▁companies	-10.5757
▁website	-10.5757
▁blame	-10.5758
▁Lake	-10.5764
▁argument	-10.5766
▁shoot	-10.5771
▁George	-10.5772
▁Vánar	-10.5772
▁dominions	-10.5772
▁resistance	-10.5773
Z	-10.5781
▁magnificent	-10.5787
▁welfare	-10.5787
ix	-10.5788
▁Kabul	-10.5789
ue	-10.5791
fold	-10.5796
CH	-10.5799
▁fury	-10.58
▁kinsmen	-10.5801
▁masses	-10.5802
ney	-10.5803
▁ko	-10.5804
▁virtues	-10.5813
▁rights	-10.5816
▁Var	-10.5816
▁abstain	-10.5817
▁subtle	-10.5818
56	-10.582
▁instantly	-10.582
▁76	-10.582
▁gentleman	-10.5821
▁practised	-10.5821
pes	-10.5822
▁Gods	-10.5823
▁Kai	-10.5826
▁begins	-10.5832
.2.	-10.5836
▁bill	-10.584
▁count	-10.5842
gri	-10.5844
▁concealed	-10.5846
▁indicate	-10.5847
▁67	-10.5852
▁bows	-10.5853
▁accustomed	-10.5861
▁resembled	-10.5863
▁170	-10.589
▁messenger	-10.5901
▁feed	-10.5904
hara	-10.5904
▁discourse	-10.5906
▁Three	-10.5906
▁Ge	-10.5906
▁writers	-10.5912
▁dame	-10.5914
most	-10.5915
▁speaks	-10.5916
▁6.	-10.5919
▁maid	-10.5922
▁Arab	-10.5923
La	-10.5925
▁Tibetan	-10.5929
br	-10.5929
▁subcaste	-10.5933
▁sentiment	-10.5935
there	-10.594
▁forming	-10.5943
▁absolute	-10.5947
▁revenge	-10.595
49	-10.5953
▁vanquished	-10.5954
▁concluded	-10.5955
▁bathed	-10.5955
ites	-10.5955
ica	-10.5955
+	-10.5955
ore	-10.5962
▁intercourse	-10.5965
▁62	-10.5967
48	-10.5972
▁182	-10.5974
▁describe	-10.5974
▁arrangement	-10.5979
anga	-10.598
▁mercy	-10.5995
▁foundation	-10.5995
▁Deo	-10.5998
58	-10.6001
▁streams	-10.6001
hin	-10.6002
▁track	-10.601
ching	-10.6011
47	-10.6012
.'"	-10.6017
▁Mysore	-10.6025
▁́	-10.6025
Na	-10.6025
▁affected	-10.6031
tre	-10.6037
tent	-10.6038
▁succeeds	-10.6044
75	-10.6045
▁doors	-10.6045
▁namely	-10.6047
▁Other	-10.6051
▁Jan	-10.6051
▁combat	-10.6055
▁foolish	-10.6056
▁reserve	-10.6064
▁cultivators	-10.6075
▁71	-10.6077
▁murdered	-10.6088
▁moreover	-10.6091
mul	-10.6099
▁viceroy	-10.61
gin	-10.6101
▁brick	-10.6101
gy	-10.6103
ria	-10.6115
▁fan	-10.6115
▁identical	-10.6115
▁alliance	-10.6116
▁Wind	-10.6119
▁songs	-10.6119
▁guest	-10.612
▁Chandra	-10.612
cit	-10.612
▁7.	-10.6122
▁farther	-10.6123
six	-10.6127
▁ease	-10.6129
▁178	-10.6129
▁build	-10.613
▁thief	-10.6131
▁Dutch	-10.6131
▁flew	-10.6131
▁basket	-10.6132
tom	-10.6142
▁Oriental	-10.6146
▁Spaniards	-10.6146
▁wore	-10.6147
▁Elliot	-10.6148
▁79	-10.6153
▁Bur	-10.6154
▁Jews	-10.6156
▁fix	-10.6165
Mu	-10.6165
▁conscious	-10.6176
▁smiling	-10.6176
ua	-10.6182
▁ascertain	-10.6189
udi	-10.6201
▁Bay	-10.6201
▁extract	-10.6201
boo	-10.6211
▁acted	-10.6211
▁aware	-10.6228
▁seeds	-10.623
IV	-10.6231
▁Office	-10.6233
▁qui	-10.6235
▁worst	-10.6238
▁Med	-10.6239
▁hitherto	-10.624
▁wretch	-10.6241
ising	-10.6241
▁inclined	-10.6243
▁lest	-10.6246
▁Nar	-10.6247
▁disposed	-10.6249
▁Mutiny	-10.6253
▁placing	-10.6253
lie	-10.6253
▁missionaries	-10.6254
▁wander	-10.6258
▁glass	-10.6258
▁fat	-10.6261
dri	-10.6263
▁specially	-10.6263
▁sections	-10.6265
Indian	-10.6266
▁row	-10.6268
▁Ven	-10.6268
▁constitute	-10.6274
▁combined	-10.6277
▁illusion	-10.6284
▁Deccan	-10.6284
▁wag	-10.6289
▁VII	-10.6301
▁Aryan	-10.6302
▁attachment	-10.6304
▁tower	-10.6305
iah	-10.631
▁countenance	-10.6315
cher	-10.6319
▁m	-10.6319
▁watching	-10.6328
▁rent	-10.6329
·5	-10.6329
▁regenerate	-10.633
▁domain	-10.633
▁payments	-10.6333
▁peaceful	-10.6337
▁Mahomedan	-10.6338
▁exclaimed	-10.634
▁practical	-10.6344
▁describes	-10.6345
even	-10.6348
kra	-10.6354
▁seventy	-10.6354
▁Sher	-10.6356
▁110	-10.6361
▁medicine	-10.6361
▁flames	-10.6363
▁instructions	-10.6365
▁respective	-10.6365
nan	-10.6367
▁Mahratta	-10.6368
mati	-10.6373
▁shield	-10.6377
▁kindness	-10.6377
▁honey	-10.6378
▁treat	-10.6391
▁thereby	-10.6391
▁Kam	-10.6391
▁che	-10.6392
▁51	-10.6393
▁dozen	-10.6396
yana	-10.6398
All	-10.6399
▁Mother	-10.6401
▁ether	-10.6401
51	-10.6402
▁cart	-10.6408
▁connexion	-10.6408
sen	-10.6412
▁furnish	-10.6412
▁Siddha	-10.6413
▁founder	-10.6419
▁nobles	-10.642
▁Infantry	-10.6424
▁architecture	-10.6424
▁loving	-10.6424
pre	-10.6425
▁spell	-10.6425
hir	-10.6427
▁Jat	-10.6428
▁nearer	-10.6439
52	-10.644
▁sovereignty	-10.6442
sam	-10.6446
ati	-10.6448
▁tents	-10.6449
▁recovered	-10.6453
▁Sind	-10.6453
▁plate	-10.6455
▁intimate	-10.6456
▁Dharma	-10.646
▁delivered	-10.6461
▁purchase	-10.6463
▁temper	-10.6463
fall	-10.647
▁applicable	-10.6471
▁hollow	-10.6471
vana	-10.6474
they	-10.6476
▁waves	-10.6478
▁recover	-10.6481
▁utmost	-10.6487
▁Islam	-10.6489
los	-10.6489
▁Bri	-10.649
▁willing	-10.6492
Now	-10.6499
now	-10.65
air	-10.65
▁supplies	-10.6502
▁Mogul	-10.6503
▁attribute	-10.6504
▁Tra	-10.6505
▁mango	-10.6505
▁humanity	-10.6505
▁demanded	-10.6507
ms	-10.6513
chu	-10.6514
57	-10.6517
▁Ten	-10.6517
▁Pass	-10.652
▁Mount	-10.6522
▁Nation	-10.6523
ool	-10.6532
▁equipment	-10.6534
▁observation	-10.6534
▁shell	-10.6538
ren	-10.6539
dá	-10.654
ological	-10.6541
▁release	-10.6542
▁walking	-10.6542
ān	-10.6542
Ra	-10.6543
▁Colin	-10.6545
▁stationed	-10.6547
▁Ran	-10.655
▁Sanjaya	-10.6551
▁export	-10.6551
▁purity	-10.6552
▁pots	-10.6553
pit	-10.6557
▁Kauravas	-10.6558
▁clans	-10.6562
▁confirmed	-10.6563
▁Virata	-10.6568
jan	-10.657
▁boundary	-10.6571
▁brow	-10.6574
▁poem	-10.6579
▁Spanish	-10.6582
▁peacock	-10.6582
chan	-10.6584
kâ	-10.6584
▁ed	-10.6589
53	-10.6589
▁riding	-10.6591
▁sleeping	-10.6594
▁strict	-10.6596
▁umbrella	-10.6598
Well	-10.6601
▁production	-10.6601
nanda	-10.6603
pir	-10.6609
▁Moreover	-10.6616
ace	-10.6624
▁convey	-10.6633
▁crossing	-10.6642
▁Post	-10.6644
▁jo	-10.6647
dal	-10.666
▁horror	-10.6662
▁toil	-10.6664
▁chamber	-10.6665
▁apparent	-10.6666
▁returns	-10.667
.’”	-10.6673
hya	-10.6677
▁hereditary	-10.6678
▁sprung	-10.6678
▁Wilson	-10.6678
▁listened	-10.6679
▁Pritha	-10.6679
▁und	-10.6679
▁Dan	-10.668
▁pile	-10.668
ṇa	-10.6685
▁High	-10.6688
▁Suta	-10.6689
▁successor	-10.6691
▁bestow	-10.6691
▁disgrace	-10.6694
▁skull	-10.6694
▁injury	-10.6694
▁waste	-10.6697
▁establish	-10.67
▁mainly	-10.6704
▁flank	-10.671
▁Shiva	-10.6713
UN	-10.6715
▁attendants	-10.6715
▁morality	-10.6716
▁Don	-10.6716
▁attains	-10.6717
▁neighbouring	-10.6722
▁conch	-10.6728
zar	-10.6736
▁estate	-10.6742
▁ritual	-10.6742
▁incarnation	-10.6745
▁lad	-10.6745
▁Van	-10.6746
▁create	-10.6746
▁seventh	-10.6747
ûñ	-10.6753
▁dispute	-10.6758
▁million	-10.6758
tia	-10.6759
▁Bai	-10.6762
▁overcome	-10.6763
▁rebel	-10.6764
▁rescue	-10.6767
▁limit	-10.6773
Mo	-10.6776
▁Part	-10.6778
Ar	-10.6783
kka	-10.6786
▁Come	-10.6789
▁1857	-10.679
.9.	-10.6791
▁“‘	-10.6794
54	-10.6795
▁needed	-10.6796
Su	-10.6797
▁ascended	-10.6797
▁reader	-10.6798
▁tract	-10.6803
▁abundant	-10.6807
▁shook	-10.6807
viz	-10.6809
▁VIII	-10.681
▁Whose	-10.6815
▁useless	-10.6816
▁Á	-10.6822
▁sounds	-10.6834
▁teacher	-10.6837
▁asleep	-10.684
▁defective	-10.6841
▁surrender	-10.6845
----	-10.6847
▁interview	-10.6856
▁turmeric	-10.6856
▁trial	-10.6863
▁pages	-10.6867
tem	-10.6876
▁300	-10.6876
esh	-10.6877
▁Shi	-10.6884
▁links	-10.6887
▁territories	-10.6889
▁essence	-10.6889
▁Min	-10.6889
▁sale	-10.689
▁feared	-10.689
rup	-10.6894
▁ju	-10.6895
▁j	-10.69
▁declares	-10.69
▁Ur	-10.6911
▁assert	-10.692
▁Committee	-10.6922
▁climate	-10.6922
▁satisfaction	-10.6922
bhi	-10.6924
6)	-10.6925
▁Nothing	-10.6926
64	-10.6936
▁entitled	-10.6938
▁abide	-10.6939
▁sixth	-10.6943
dars	-10.6944
▁dim	-10.6945
ek	-10.6946
▁acquire	-10.695
▁practices	-10.6952
wâ	-10.6963
▁pick	-10.6967
fl	-10.6967
say	-10.6968
▁hanging	-10.6968
▁Fazil	-10.6971
▁knot	-10.6972
leg	-10.6973
hor	-10.6973
upa	-10.6974
▁Similarly	-10.6974
emp	-10.6976
▁81	-10.6979
▁threatened	-10.6981
▁tali	-10.6981
▁remark	-10.6981
cept	-10.6983
▁jar	-10.6985
▁Amir	-10.6987
▁contrast	-10.6988
▁begged	-10.6988
▁suitable	-10.6991
bhu	-10.6993
▁transport	-10.6994
▁veil	-10.6995
right	-10.6997
▁garlands	-10.6997
▁184	-10.6998
▁introduction	-10.7004
mail	-10.7008
▁thirst	-10.701
▁weary	-10.7016
▁177	-10.7017
▁viewed	-10.7021
▁import	-10.7025
59	-10.7029
▁Sita	-10.703
▁knife	-10.7037
▁delicate	-10.7037
▁rebellion	-10.7037
asa	-10.7038
▁34	-10.7039
▁endeavour	-10.7046
▁dated	-10.7053
_.)	-10.7054
▁Travancore	-10.7054
▁prophet	-10.7054
▁Tam	-10.7054
90	-10.7056
▁120	-10.706
old	-10.7061
form	-10.7069
▁slavery	-10.7075
art	-10.7078
▁Ant	-10.7081
▁languages	-10.7083
66	-10.7085
▁debt	-10.7089
▁hate	-10.7089
▁failure	-10.7089
tical	-10.7092
▁dependent	-10.7093
part	-10.7093
▁82	-10.7097
▁organ	-10.71
dam	-10.7101
▁covering	-10.7102
▁older	-10.7102
▁surprised	-10.7102
▁behaviour	-10.7104
ome	-10.7105
bit	-10.7105
▁sole	-10.7105
▁hang	-10.7109
▁sh	-10.7109
▁thinks	-10.7117
▁anchor	-10.7119
▁rajah	-10.7124
Co	-10.7125
get	-10.7126
▁—	-10.7129
lat	-10.713
▁tear	-10.7133
cula	-10.7135
lle	-10.7135
▁mutual	-10.7138
▁Hugh	-10.7141
▁Greeks	-10.7145
win	-10.7145
▁retire	-10.7146
▁inspired	-10.7148
▁guru	-10.7149
▁fro	-10.7149
▁Perhaps	-10.7158
ied	-10.7158
▁laugh	-10.7164
▁Was	-10.7167
▁bas	-10.7167
▁charged	-10.7168
▁permit	-10.7172
nagar	-10.7172
iness	-10.7175
▁wherever	-10.718
▁profit	-10.7184
hri	-10.7186
▁females	-10.7188
▁tip	-10.7191
▁prevented	-10.7192
por	-10.7192
▁clad	-10.7194
▁acting	-10.7199
▁500	-10.7203
7)	-10.7206
▁traders	-10.721
▁Brāhman	-10.7214
▁representative	-10.7215
▁merits	-10.7218
*	-10.7219
▁headman	-10.7221
▁prefer	-10.7222
night	-10.7233
▁drop	-10.7235
▁receives	-10.7235
▁dome	-10.7239
cus	-10.7242
▁tired	-10.7246
▁monks	-10.7248
▁pursue	-10.725
▁cloths	-10.7255
▁Cavalry	-10.7256
▁guardian	-10.7257
▁130	-10.7262
▁chant	-10.7264
▁warlike	-10.7264
▁Cho	-10.7266
▁Day	-10.7277
ties	-10.728
▁circumstance	-10.7284
▁slightly	-10.7285
▁bestowed	-10.7285
▁trembling	-10.729
▁solid	-10.7294
▁released	-10.7299
▁Are	-10.73
▁lament	-10.7305
61	-10.7305
▁carved	-10.7308
UT	-10.7308
hán	-10.7316
▁halt	-10.7317
▁scent	-10.732
ál	-10.7321
▁shortly	-10.7322
▁Punjaub	-10.7325
▁Gautama	-10.7325
ros	-10.7327
▁parent	-10.7329
▁comparatively	-10.733
▁Moon	-10.7332
▁represents	-10.7333
▁embrace	-10.7335
▁cor	-10.7341
▁austerities	-10.7342
▁platform	-10.7342
▁drum	-10.7345
▁crowned	-10.7346
▁181	-10.7349
▁constructed	-10.7355
chief	-10.7355
▁1891	-10.7356
▁ministers	-10.7357
▁proposal	-10.7359
▁average	-10.7359
By	-10.7362
▁nearest	-10.7372
▁claimed	-10.7372
▁wretched	-10.7372
vin	-10.7374
▁settle	-10.739
│	-10.7392
▁Rā	-10.7392
ima	-10.7394
▁super	-10.7395
▁(2)	-10.7396
▁discipline	-10.7396
▁impure	-10.7396
▁pace	-10.7398
▁crowded	-10.7398
after	-10.7398
je	-10.7399
▁Book	-10.7401
▁Ind	-10.7402
Vi	-10.7403
▁Kur	-10.7404
▁Java	-10.7404
▁association	-10.7411
▁constellation	-10.7411
▁responsible	-10.7411
▁feathers	-10.7411
▁limits	-10.7412
▁representing	-10.7413
▁NOT	-10.7413
▁gentlemen	-10.7413
▁translated	-10.7418
▁ghost	-10.7424
▁provision	-10.7424
gam	-10.7426
▁Lakshmaṇ	-10.7428
▁Kripa	-10.7428
▁shooting	-10.743
mark	-10.743
▁lack	-10.743
▁remarked	-10.7439
She	-10.7441
▁cantonment	-10.7445
▁shining	-10.7445
▁gay	-10.745
try	-10.7451
cc	-10.7451
▁gather	-10.7458
▁sq	-10.746
gen	-10.7462
▁mendicant	-10.7463
ire	-10.7463
oph	-10.7463
▁ro	-10.7466
▁ce	-10.7467
▁imposed	-10.7468
▁hermitage	-10.7481
▁corps	-10.7488
▁Bank	-10.749
▁abandon	-10.749
▁derive	-10.7492
nta	-10.7493
▁blessing	-10.7495
▁swept	-10.7497
▁telling	-10.75
▁ti	-10.7501
▁chase	-10.7503
ough	-10.7512
▁bay	-10.7515
▁Rāghava	-10.7515
▁Bho	-10.7519
▁Cape	-10.7525
nis	-10.7525
▁practise	-10.7526
▁firmly	-10.7526
▁cows	-10.7528
▁sacrificed	-10.7531
lated	-10.7535
lap	-10.7537
▁11.	-10.754
▁exhausted	-10.754
▁realm	-10.7542
▁delightful	-10.7546
ná	-10.7547
▁Water	-10.7552
▁earnest	-10.7552
▁sha	-10.756
▁reasonable	-10.7567
pha	-10.7578
▁Mus	-10.7579
▁bell	-10.7582
ory	-10.7583
Pa	-10.7585
▁intense	-10.7585
▁hurt	-10.7586
lon	-10.7589
eight	-10.759
▁characteristics	-10.7591
▁Ag	-10.7592
!--	-10.7592
rant	-10.7599
▁elaborate	-10.7603
▁literally	-10.7608
rai	-10.761
▁eighteen	-10.7612
▁Paris	-10.7615
History	-10.7618
At	-10.7619
▁Mag	-10.7621
▁flock	-10.7622
vil	-10.7626
▁Bull	-10.7627
▁favourable	-10.7629
▁Swa	-10.7631
▁reports	-10.7635
▁decision	-10.7638
▁receipt	-10.7638
▁brain	-10.7638
▁Good	-10.7639
▁fancy	-10.7639
▁amid	-10.7644
▁chieftain	-10.7658
sâ	-10.7659
▁fo	-10.7659
▁eighty	-10.7667
▁160	-10.7667
▁conclude	-10.7668
cut	-10.767
▁reside	-10.7671
▁sped	-10.7678
▁leap	-10.7683
▁exertion	-10.7684
▁horsemen	-10.7686
▁immortal	-10.7688
nkara	-10.7689
guard	-10.7691
▁balance	-10.7691
mus	-10.7692
▁85	-10.7694
THE	-10.7697
placement	-10.7697
▁creed	-10.7699
ash	-10.7702
wara	-10.7702
▁pig	-10.7704
Ja	-10.7706
▁Congress	-10.7709
▁excitement	-10.771
▁thereof	-10.7712
▁violent	-10.7713
▁beard	-10.7719
ini	-10.772
.=	-10.7722
▁formidable	-10.7727
▁unfortunate	-10.7727
ux	-10.773
▁chair	-10.7731
▁successive	-10.7732
▁commanding	-10.7733
▁Rome	-10.7733
▁noon	-10.7734
▁roll	-10.7735
UL	-10.7738
▁Rākshasas	-10.774
▁inhabited	-10.7742
▁accident	-10.7744
▁plenty	-10.7745
▁midnight	-10.7745
▁map	-10.7753
▁hopes	-10.7756
▁throwing	-10.7756
▁stretched	-10.776
ü	-10.7762
▁imagination	-10.7762
▁irregular	-10.7762
▁famine	-10.7763
▁twin	-10.7763
▁playing	-10.7764
▁myth	-10.7764
▁repeat	-10.7776
▁hunter	-10.7776
▁Residency	-10.778
▁nephew	-10.778
▁smooth	-10.778
▁structure	-10.778
▁spouse	-10.778
▁rushing	-10.7784
▁safely	-10.7787
▁Jain	-10.7788
bre	-10.7788
▁bands	-10.779
pin	-10.7794
▁Gho	-10.7797
▁perish	-10.7798
▁beg	-10.78
▁earthen	-10.78
▁independence	-10.7808
karan	-10.7808
67	-10.7809
▁cock	-10.781
▁Â	-10.7811
hat	-10.7812
▁te	-10.7814
atory	-10.7814
▁touching	-10.7815
▁Gandharvas	-10.7815
▁managed	-10.7818
▁sooner	-10.7819
▁(18	-10.7821
▁Mohammedan	-10.7821
▁beaten	-10.7822
▁occupy	-10.7824
▁lust	-10.7825
lish	-10.7825
Me	-10.783
▁planted	-10.783
▁mankind	-10.7834
▁pilgrimage	-10.7835
▁neighbours	-10.7838
▁crest	-10.7842
▁utterly	-10.7843
▁whereas	-10.7845
▁Kum	-10.7851
▁Tennessee	-10.7852
▁breeze	-10.7852
▁temporary	-10.7852
▁gaze	-10.7855
▁honest	-10.786
▁rolled	-10.7862
▁bath	-10.7863
▁columns	-10.7866
▁fortunate	-10.7871
▁9.	-10.7872
▁interpretation	-10.7873
ok	-10.7882
▁Fe	-10.7885
▁offers	-10.7887
His	-10.7888
▁Sítá	-10.7889
▁mild	-10.789
▁minor	-10.789
mis	-10.7891
hy	-10.7892
▁armour	-10.7892
▁awake	-10.7892
▁extending	-10.7893
▁likewise	-10.7894
▁feature	-10.7895
▁Any	-10.7899
▁notion	-10.79
▁corrupt	-10.7903
▁Vedânta	-10.7907
▁derivative	-10.7907
▁Rakshasas	-10.7909
▁Hara	-10.7913
▁Sudra	-10.7916
band	-10.7916
63	-10.792
▁fires	-10.7921
62	-10.7923
▁Imperial	-10.7925
▁THIS	-10.7925
press	-10.7929
▁Miss	-10.7932
▁175	-10.7933
▁breaking	-10.794
▁achieved	-10.794
RO	-10.7941
▁modification	-10.7943
▁hunt	-10.7944
▁disciple	-10.7951
▁handed	-10.7956
▁lowest	-10.7958
▁criminal	-10.7961
▁aloud	-10.7962
▁Madura	-10.7962
▁finds	-10.7963
▁Age	-10.7963
▁travellers	-10.7969
riya	-10.7977
▁Resident	-10.798
▁Nala	-10.7983
▁dies	-10.7986
▁frightened	-10.7991
▁bathing	-10.7993
cies	-10.7995
▁pearls	-10.7997
▁brigade	-10.7998
▁smell	-10.7998
▁club	-10.7998
▁examples	-10.8007
▁descendant	-10.8008
▁paragraphs	-10.801
▁Sho	-10.8012
▁rises	-10.8015
▁dialect	-10.8016
▁reputation	-10.8016
▁massacre	-10.8016
▁summoned	-10.802
▁Bharat	-10.8021
▁plot	-10.8021
ami	-10.8024
▁tone	-10.8025
▁mansion	-10.8029
▁LIMITED	-10.8035
▁execution	-10.8035
▁innocent	-10.8035
▁Rathor	-10.8035
uz	-10.8035
▁Hy	-10.8036
▁pet	-10.804
▁Manipur	-10.8041
▁glow	-10.8043
▁masters	-10.8051
▁harvest	-10.8053
▁maternal	-10.8053
▁valour	-10.8053
▁hurried	-10.8053
poor	-10.8055
▁Vis	-10.8058
▁Ber	-10.8059
water	-10.806
▁105	-10.8063
▁bungalow	-10.8072
cer	-10.8074
lee	-10.8074
▁pack	-10.8076
▁83	-10.808
▁references	-10.8081
lai	-10.8087
▁Presidency	-10.809
▁bundle	-10.809
▁Percy	-10.8091
▁remainder	-10.8094
ters	-10.8096
▁statements	-10.8099
▁affair	-10.8101
▁Bala	-10.8109
▁10.	-10.811
▁vice	-10.811
▁reflection	-10.8114
▁traditions	-10.8115
▁140	-10.8118
ush	-10.8121
▁fatigue	-10.8127
▁com	-10.8136
▁window	-10.814
▁largest	-10.8142
▁Hi	-10.8144
ili	-10.8144
▁hither	-10.8145
▁Dravidian	-10.8146
▁autumn	-10.8146
▁Havelock	-10.8146
▁allies	-10.8147
▁weeping	-10.8148
▁lifted	-10.815
ery	-10.8151
▁Kâ	-10.8155
▁indicated	-10.8157
▁settlements	-10.816
!’	-10.8161
rig	-10.8163
▁bend	-10.8163
▁worshippers	-10.8169
▁wing	-10.8174
▁Listen	-10.8177
▁Sen	-10.8177
aria	-10.8179
▁multitude	-10.8183
▁vehicle	-10.8183
▁compassion	-10.8185
▁entertained	-10.8186
▁subsequently	-10.8188
▁Bhar	-10.8191
▁bowed	-10.8191
▁suggestion	-10.8192
mount	-10.8194
▁instruments	-10.8195
quarters	-10.8196
▁compound	-10.8202
▁lit	-10.8204
oma	-10.8214
rab	-10.8216
▁countrymen	-10.8216
unda	-10.8219
▁Whether	-10.822
▁commerce	-10.822
▁block	-10.8221
▁trick	-10.8223
gro	-10.8223
izing	-10.8225
▁Nâ	-10.8225
▁(1)	-10.8225
▁decay	-10.8239
▁cho	-10.8242
gas	-10.8245
▁asking	-10.8246
▁press	-10.8249
plant	-10.825
ories	-10.8251
▁Yu	-10.8255
▁embodied	-10.8258
▁warning	-10.8259
▁coloured	-10.826
ditya	-10.8261
dom	-10.8264
▁quiver	-10.8265
▁steal	-10.8265
▁intent	-10.8267
bus	-10.827
nos	-10.8275
▁capacity	-10.8277
▁examination	-10.8277
▁clever	-10.8277
▁breach	-10.8277
▁Sc	-10.8278
▁Mun	-10.8279
VI	-10.8291
gun	-10.8292
▁instruction	-10.8293
ford	-10.8294
▁disturbed	-10.8295
▁cognition	-10.8296
▁enclosure	-10.8296
▁security	-10.8296
▁Oudh	-10.8296
▁France	-10.8296
▁construction	-10.8297
vata	-10.8298
[19	-10.8299
▁Ś	-10.8299
ctor	-10.83
▁sees	-10.8308
▁Jai	-10.831
▁bade	-10.8312
▁whites	-10.8312
▁gleam	-10.8315
▁tide	-10.8322
._;	-10.8326
▁hymns	-10.8328
kot	-10.8331
▁Except	-10.8334
68	-10.8335
▁widows	-10.8338
▁Dur	-10.8338
"--	-10.8339
tory	-10.8339
▁Mil	-10.8345
▁drums	-10.8345
▁Jaina	-10.8345
tee	-10.8348
▁fil	-10.8349
▁observance	-10.835
▁busy	-10.8353
▁box	-10.8355
▁City	-10.8357
▁deadly	-10.8358
▁correspond	-10.8359
▁ancestor	-10.8369
long	-10.8372
hall	-10.8372
▁Sunday	-10.8376
▁portions	-10.8376
bri	-10.838
▁explains	-10.838
mara	-10.8382
▁include	-10.8384
▁rid	-10.8388
▁drunk	-10.8388
▁Nara	-10.8389
▁102	-10.8389
▁brethren	-10.8391
▁exempt	-10.8391
▁blanket	-10.8391
▁German	-10.8399
▁horn	-10.8401
▁grasp	-10.8401
▁aged	-10.8402
▁corresponding	-10.8402
▁enabled	-10.8404
▁Long	-10.8405
▁risen	-10.8407
▁superstition	-10.841
▁copied	-10.841
▁damsel	-10.841
▁sages	-10.8412
▁Gold	-10.8413
rated	-10.8413
▁Commander	-10.8416
▁mid	-10.8419
▁verses	-10.8421
▁respectable	-10.8423
▁resting	-10.8423
▁goal	-10.8427
▁sympathy	-10.8429
▁absent	-10.8429
▁restrictions	-10.8429
▁disturbance	-10.8429
▁contest	-10.843
▁robes	-10.8431
▁86	-10.8432
▁deny	-10.8434
▁hunger	-10.8436
▁complying	-10.8437
▁seeking	-10.8438
▁lap	-10.8441
▁bu	-10.8442
▁Devi	-10.8447
▁courts	-10.8451
▁Gr	-10.8458
▁fu	-10.8461
▁Buddhists	-10.8465
text	-10.8467
▁nevertheless	-10.8467
▁prize	-10.8468
▁Trans	-10.8469
▁conviction	-10.847
▁Má	-10.8473
▁Alas	-10.8475
▁respects	-10.8475
▁addressing	-10.8475
mini	-10.8476
▁hurled	-10.8477
▁huts	-10.8478
▁dealing	-10.8481
▁Bagh	-10.8484
▁Mirza	-10.8486
▁Sháh	-10.8487
▁banner	-10.8487
▁protest	-10.8487
▁doubtless	-10.8488
▁royalties	-10.8488
▁eva	-10.8488
▁possesses	-10.8491
▁wa	-10.8492
?’	-10.8496
▁lesson	-10.8499
▁critical	-10.8501
▁perceive	-10.8501
▁protector	-10.8504
▁176	-10.8505
▁prospect	-10.8506
▁shouldst	-10.8507
▁cre	-10.8507
▁Fire	-10.8509
▁Hope	-10.851
▁pipe	-10.8513
▁Sakra	-10.8516
▁disappear	-10.8516
▁despatch	-10.8517
mes	-10.8517
▁discovery	-10.8524
▁generous	-10.8525
▁tribal	-10.8525
▁privilege	-10.8526
▁conferred	-10.8526
▁continually	-10.853
ane	-10.8531
▁Mur	-10.8533
▁Africa	-10.8541
▁leather	-10.8544
▁ascend	-10.8544
▁captive	-10.8546
▁error	-10.8547
liness	-10.8549
▁smiled	-10.8552
▁pur	-10.8553
▁Brahmin	-10.8553
▁determine	-10.856
▁vengeance	-10.8564
▁shone	-10.8565
▁Which	-10.8567
▁colours	-10.857
▁carries	-10.8571
▁materials	-10.8576
▁din	-10.8576
ila	-10.8578
▁regret	-10.8581
▁Vikram	-10.8583
▁pushed	-10.8585
▁retained	-10.8585
▁donate	-10.8586
▁Mad	-10.8586
▁load	-10.8588
▁affect	-10.8588
▁nurse	-10.8591
nj	-10.8592
▁Seeing	-10.8597
▁robbers	-10.86
▁Chu	-10.8605
▁converted	-10.8608
Here	-10.8609
▁disclaimer	-10.8609
lâ	-10.8611
▁palms	-10.8614
▁reigned	-10.8616
▁hospital	-10.8619
▁AGREE	-10.8622
▁DAMAGE	-10.8622
▁acquisition	-10.8622
▁Jumna	-10.8622
▁invisible	-10.8622
▁wrist	-10.8622
▁steel	-10.8622
wá	-10.8624
8)	-10.8626
?--	-10.8639
▁caves	-10.864
hold	-10.8642
▁tread	-10.8643
▁readily	-10.8644
ena	-10.8646
▁suggest	-10.8647
nut	-10.8651
▁calculated	-10.8653
▁torn	-10.8653
▁husbands	-10.8654
sum	-10.8655
▁rains	-10.8656
▁Russian	-10.8656
▁passions	-10.8658
▁Dhrishtadyumna	-10.8661
▁Gwalior	-10.8661
▁pledge	-10.8662
▁cakes	-10.8662
▁cheerful	-10.8669
▁upwards	-10.8669
▁constituted	-10.8671
▁wars	-10.8672
▁landed	-10.8677
.3,	-10.8677
road	-10.868
Where	-10.8681
▁Narayana	-10.8681
▁resemble	-10.8682
hân	-10.8686
ky	-10.8686
▁employment	-10.8687
▁accord	-10.8688
▁Gujarat	-10.869
9)	-10.8691
apa	-10.8692
ET	-10.8696
▁equivalent	-10.87
▁magistrate	-10.87
▁necklace	-10.87
▁subordinate	-10.8701
▁deliver	-10.8701
.5.	-10.8701
▁Mahadeva	-10.8701
0)	-10.8702
▁papers	-10.8702
▁prominent	-10.8703
▁wake	-10.8703
ville	-10.8707
▁san	-10.8708
▁demands	-10.8708
▁prison	-10.871
▁Guru	-10.871
read	-10.871
âra	-10.8711
▁Bania	-10.8714
▁wants	-10.8715
▁crow	-10.8716
log	-10.8718
▁compass	-10.8718
▁Tristram	-10.872
▁ruling	-10.872
▁victorious	-10.872
▁decorated	-10.8724
▁cord	-10.8724
▁stolen	-10.8725
▁accompany	-10.8729
▁turns	-10.873
1)	-10.8734
▁Sugriva	-10.874
▁oath	-10.874
▁plans	-10.8743
▁possessions	-10.8745
▁Afghan	-10.8745
▁ammunition	-10.876
▁innumerable	-10.876
Not	-10.8761
▁Others	-10.8761
where	-10.8767
▁Mir	-10.8771
▁undergo	-10.8772
▁}	-10.8772
▁spur	-10.8773
▁sink	-10.8773
▁Notes	-10.8778
▁constitution	-10.8779
▁identified	-10.8779
▁parallel	-10.8779
▁spoil	-10.878
▁monster	-10.878
▁knee	-10.8786
▁proceeds	-10.8788
▁Babu	-10.8791
bas	-10.8792
▁negro	-10.8793
▁talking	-10.8795
▁castle	-10.8796
▁valiant	-10.8799
▁Minister	-10.8799
▁whatsoever	-10.8802
iti	-10.8813
▁doctrines	-10.8817
▁Service	-10.8819
▁forbidden	-10.8819
▁Light	-10.8822
▁penance	-10.8828
lock	-10.8828
▁springs	-10.8829
▁Tan	-10.883
▁weakness	-10.883
ral	-10.8836
▁shop	-10.8837
▁cell	-10.8842
▁pounds	-10.8843
rtha	-10.8845
▁fragments	-10.8845
nath	-10.8846
nal	-10.885
▁93	-10.8852
▁pl	-10.8857
▁dedicated	-10.8859
▁dragged	-10.8859
▁punish	-10.8867
▁winds	-10.8868
▁deemed	-10.8876
▁el	-10.8877
LO	-10.8878
▁~	-10.8878
▁patience	-10.8879
▁idle	-10.888
▁daring	-10.8882
▁preparations	-10.8882
▁stayed	-10.8886
tah	-10.8895
asi	-10.8896
▁combatants	-10.8899
▁denied	-10.89
▁Bâ	-10.8906
lation	-10.891
▁attempts	-10.8911
00,000	-10.8917
TA	-10.8918
pers	-10.8918
▁attaining	-10.8919
▁slept	-10.8919
Ah	-10.8919
▁sphere	-10.8919
▁Count	-10.8924
▁educated	-10.8925
▁engage	-10.8927
taka	-10.8934
▁est	-10.8939
Sanjaya	-10.8939
▁Roy	-10.8939
▁behoveth	-10.8943
lly	-10.8946
▁88	-10.8947
▁ob	-10.8955
▁crushed	-10.8955
▁iv	-10.8956
▁proceedings	-10.8956
▁fe	-10.8957
▁107	-10.8958
▁bloom	-10.8959
▁Palace	-10.896
▁complexion	-10.8961
▁crop	-10.8961
▁shouts	-10.8964
dding	-10.897
▁arises	-10.897
▁swell	-10.8974
▁user	-10.8974
Having	-10.8979
▁destitute	-10.898
▁picturesque	-10.898
▁uncertain	-10.8981
▁citizens	-10.8985
▁1:	-10.8986
▁div	-10.8989
▁liberal	-10.8997
▁skilled	-10.8999
▁Bra	-10.9
▁harbour	-10.9
▁consequences	-10.9001
▁possessing	-10.9009
▁erect	-10.9009
▁pillar	-10.9011
▁seasons	-10.9012
▁halted	-10.9012
▁traveller	-10.9013
▁imagine	-10.9017
▁injunction	-10.902
▁Philip	-10.9021
▁lately	-10.9022
má	-10.9031
▁135	-10.9032
YA	-10.9037
69	-10.9037
.8.	-10.9037
▁vicinity	-10.904
▁gently	-10.904
▁tri	-10.9041
▁Hindustan	-10.9043
▁headed	-10.9049
▁laughing	-10.9057
uni	-10.9058
▁comparison	-10.9061
▁enterprise	-10.9061
▁cousin	-10.9061
▁genius	-10.9061
▁behalf	-10.9064
una	-10.9065
▁hereafter	-10.9065
▁brand	-10.9068
▁effective	-10.907
▁pool	-10.9071
▁posts	-10.9071
▁afforded	-10.9078
▁clause	-10.9081
▁skies	-10.9081
▁slender	-10.9082
▁scorn	-10.9083
▁gateway	-10.9083
▁strictly	-10.9083
▁gen	-10.9084
▁destroying	-10.9084
▁Upper	-10.9087
▁charming	-10.909
bil	-10.909
top	-10.9101
▁satisfy	-10.9102
▁specified	-10.9102
▁statue	-10.9102
▁Mat	-10.9102
72	-10.9104
▁earn	-10.9106
▁gazed	-10.9108
▁Ph	-10.9116
▁loc	-10.9116
▁resources	-10.912
oi	-10.9121
α	-10.9122
▁owe	-10.9123
▁unity	-10.9124
▁enters	-10.9124
▁cruelty	-10.9126
▁marching	-10.9135
▁county	-10.9137
hill	-10.9137
▁lords	-10.9137
▁invested	-10.914
▁industry	-10.9143
▁der	-10.9144
,—"	-10.9147
II	-10.9147
▁repaired	-10.9151
▁Mas	-10.9153
TER	-10.9153
▁Mac	-10.9166
▁Brahmā	-10.9167
▁hungry	-10.9167
▁steady	-10.9168
▁grounds	-10.9169
▁cannon	-10.917
▁thirteen	-10.9175
▁Kunda	-10.918
▁Mai	-10.9182
▁outward	-10.9182
▁characters	-10.9183
▁sketch	-10.9184
▁treasury	-10.9184
▁More	-10.9184
▁induced	-10.9186
▁Behold	-10.9187
—"	-10.919
rama	-10.919
uld	-10.9193
▁homes	-10.9195
▁color	-10.9196
▁Maharaja	-10.92
1⁄2	-10.9205
▁effulgence	-10.9205
▁puissant	-10.9205
▁grandsire	-10.9205
▁mistress	-10.9205
▁villagers	-10.9205
▁Râ	-10.9209
▁rang	-10.9213
▁Hon	-10.9214
dhar	-10.9215
▁Surat	-10.9218
▁Mul	-10.9219
▁Emancipation	-10.9225
▁happily	-10.9225
▁misfortune	-10.9225
▁mysterious	-10.9225
▁acquaintance	-10.9225
▁"_	-10.9229
lak	-10.9235
▁project	-10.9237
▁Hol	-10.9237
▁experienced	-10.9238
▁gathering	-10.9241
▁painful	-10.9244
scribe	-10.9245
71	-10.9245
▁Bah	-10.9246
▁salvation	-10.9246
cca	-10.9247
▁Creator	-10.9248
▁baby	-10.9248
▁Grant	-10.9256
▁handful	-10.9258
▁goats	-10.926
▁decide	-10.9264
▁fraught	-10.9267
cloth	-10.9267
fulness	-10.9269
▁travelling	-10.9271
skin	-10.9272
▁Fer	-10.9275
▁Fate	-10.9275
▁Marwar	-10.9277
arm	-10.928
▁subdued	-10.928
▁research	-10.9281
aught	-10.9281
▁reflected	-10.9283
tail	-10.9285
keeper	-10.9286
▁dwelt	-10.9288
▁fiend	-10.9288
▁ordinance	-10.9288
▁varied	-10.9288
▁steamer	-10.9289
▁Mand	-10.9295
hâr	-10.9296
▁kiss	-10.9301
▁knees	-10.9302
▁disregard	-10.9302
▁shared	-10.9303
rî	-10.9303
▁Rakshasa	-10.9306
▁karma	-10.9306
▁Englishmen	-10.9308
▁xx	-10.9308
▁miserable	-10.9308
▁Pitris	-10.9309
▁coinage	-10.9311
▁legends	-10.9323
▁hy	-10.9326
▁pin	-10.9332
▁Hills	-10.9332
▁manifestation	-10.9332
▁sahib	-10.9333
▁mostly	-10.9339
▁Gha	-10.9345
▁individuals	-10.9346
▁Jaya	-10.9347
▁manufacture	-10.9348
▁interfere	-10.935
▁Author	-10.935
▁bazaar	-10.935
▁contend	-10.9351
▁fowl	-10.9352
▁Person	-10.9353
']	-10.9355
▁negroes	-10.9358
▁bh	-10.9358
▁camels	-10.9361
▁Mewar	-10.9365
▁Gh	-10.9365
▁shores	-10.9366
▁Satya	-10.937
ă	-10.9371
▁wheat	-10.9371
▁driving	-10.9372
▁rested	-10.9374
▁sisters	-10.9377
▁sex	-10.9377
CT	-10.9379
kal	-10.9383
▁stain	-10.9386
▁canal	-10.9387
▁DESCRIPTION	-10.9392
▁scenes	-10.9393
▁joint	-10.9395
▁repose	-10.9395
▁Religion	-10.9397
▁109	-10.9399
▁intervals	-10.9401
▁Han	-10.9406
▁sheet	-10.9408
▁musket	-10.9412
▁spare	-10.9413
▁dominion	-10.9413
▁combination	-10.9414
▁shock	-10.9414
▁sunset	-10.9414
▁saddle	-10.9414
uli	-10.9415
▁Charles	-10.9415
▁garments	-10.942
.4.	-10.942
▁wounds	-10.9421
▁prevailed	-10.943
▁186	-10.943
run	-10.9431
▁Greece	-10.9435
▁document	-10.9435
▁prostrate	-10.9435
▁savages	-10.9435
▁troop	-10.9435
▁embraced	-10.9443
▁Sepoys	-10.9443
ār	-10.9447
three	-10.9453
▁stomach	-10.9456
▁unusual	-10.9456
▁slightest	-10.9461
▁cooking	-10.9464
74	-10.9467
▁wail	-10.9469
ám	-10.9471
▁recite	-10.9477
▁occurrence	-10.9477
▁Truth	-10.9477
▁Simla	-10.9477
▁decree	-10.9477
▁Johnstone	-10.9478
▁appointment	-10.948
▁casting	-10.9481
âl	-10.9484
▁Bel	-10.9484
▁sources	-10.9486
▁sez	-10.9486
▁troubled	-10.9486
ori	-10.9487
▁Ze	-10.9488
▁ku	-10.949
▁protecting	-10.9493
▁venture	-10.9497
ṭ	-10.9498
▁Joseph	-10.9498
▁colonies	-10.9498
▁elevation	-10.9498
▁invariably	-10.9498
▁resign	-10.9499
▁appropriate	-10.9499
▁topic	-10.9504
struc	-10.9508
▁rag	-10.9519
▁orthodox	-10.952
▁telegraph	-10.952
▁thorn	-10.952
▁proclaimed	-10.9521
▁chin	-10.9521
▁split	-10.9521
▁Phil	-10.9523
▁App	-10.9527
▁al	-10.9527
iled	-10.9528
▁1901,	-10.9535
▁declaration	-10.9541
▁endure	-10.9554
▁cultivated	-10.9559
minded	-10.9559
▁Robert	-10.9562
▁HABITAT	-10.9562
ä	-10.9562
▁equipped	-10.9565
▁descend	-10.9567
Plain	-10.9572
▁sang	-10.9574
▁slaughtered	-10.9575
▁tar	-10.9576
▁ruined	-10.9581
▁Nicobar	-10.9584
▁avail	-10.9585
▁patron	-10.9586
▁Marriage	-10.9588
when	-10.9588
▁Lady	-10.9589
76	-10.9589
▁gets	-10.9593
yard	-10.9596
▁department	-10.9597
▁deserve	-10.9599
▁resort	-10.96
▁dreams	-10.9605
Ta	-10.9609
atta	-10.9609
lets	-10.9609
▁bought	-10.9609
▁induce	-10.9612
▁devotee	-10.9616
▁conveyed	-10.9621
▁vanquish	-10.9621
▁Sy	-10.9622
hum	-10.9622
▁modes	-10.9622
▁marriages	-10.9627
▁admiration	-10.9627
vans	-10.9628
▁	-10.9628
Á	-10.9628
▁tie	-10.9629
▁shouted	-10.9631
▁Mahrattas	-10.964
▁dig	-10.9641
▁cure	-10.9644
rí	-10.9647
▁relating	-10.9649
▁confer	-10.965
Ga	-10.9651
▁Nat	-10.9652
▁wept	-10.9658
▁examined	-10.9665
▁attacks	-10.9666
rel	-10.9667
test	-10.9668
▁Chin	-10.967
▁disorder	-10.967
▁photograph	-10.967
▁plantain	-10.967
▁epic	-10.967
▁Princess	-10.9671
Yudhishthira	-10.9672
▁device	-10.9672
▁respectively	-10.9673
▁slip	-10.9673
▁poetry	-10.9674
▁ban	-10.9676
mission	-10.9676
til	-10.9677
▁hopeless	-10.9685
▁tend	-10.9686
▁Rat	-10.9688
will	-10.9689
▁INDIA	-10.9691
▁Artillery	-10.9692
▁Department	-10.9692
▁agricultural	-10.9692
▁felicity	-10.9692
▁dried	-10.9692
▁divide	-10.9693
▁Sama	-10.9694
▁restore	-10.9696
▁institutions	-10.9698
St	-10.97
▁bury	-10.9702
▁wash	-10.9705
▁partake	-10.9706
▁victims	-10.9707
▁agents	-10.9707
▁Four	-10.9709
▁consumed	-10.9709
▁positive	-10.9714
▁camel	-10.9714
▁raising	-10.9714
▁wet	-10.9715
thy	-10.9716
▁singular	-10.9718
▁requires	-10.972
▁function	-10.972
▁Sh	-10.9721
nah	-10.9722
▁convinced	-10.9722
oy	-10.9722
dated	-10.9722
▁incur	-10.9726
▁sticks	-10.9726
▁bread	-10.9728
▁abuse	-10.973
▁Jains	-10.9733
▁operation	-10.9734
▁welkin	-10.9735
▁creek	-10.9736
▁pardon	-10.9736
▁Kun	-10.9736
▁108	-10.9738
▁eminent	-10.974
▁112	-10.9742
mun	-10.9743
._—	-10.9744
▁rail	-10.9748
line	-10.9749
▁Nag	-10.975
▁lift	-10.9753
▁competent	-10.9757
▁countless	-10.9761
▁degrees	-10.9764
rata	-10.9766
table	-10.9768
▁chose	-10.9773
▁Sur	-10.9777
▁instrument	-10.9778
▁determination	-10.9779
arian	-10.9781
▁157	-10.9784
▁concern	-10.9787
lab	-10.9787
▁97	-10.9792
mother	-10.9792
▁Look	-10.9794
ána	-10.9795
▁Mountain	-10.9801
▁verandah	-10.9803
▁Within	-10.9807
▁appearing	-10.981
▁herds	-10.9814
▁formal	-10.9819
▁Persians	-10.982
▁census	-10.9823
▁perpetual	-10.9823
ás	-10.9826
▁Bible	-10.9838
▁commit	-10.9842
▁steam	-10.9843
▁guarded	-10.9845
▁eventually	-10.9845
▁firmament	-10.9845
▁emblem	-10.9845
▁stroke	-10.9845
▁Home	-10.9846
anda	-10.9849
▁87	-10.9849
▁includes	-10.9851
rti	-10.9853
▁ties	-10.9858
▁charms	-10.9859
▁pretend	-10.9862
▁95	-10.9864
▁pollution	-10.9867
▁wrought	-10.9867
▁pyre	-10.9867
▁coarse	-10.9867
▁culture	-10.9868
▁Bud	-10.9869
▁fold	-10.9872
2)	-10.9874
tell	-10.9874
▁serving	-10.9876
▁trained	-10.9883
▁reveal	-10.9884
▁unlike	-10.9887
▁fearful	-10.9887
▁dagger	-10.9889
▁tendency	-10.9889
▁endowed	-10.9889
▁firing	-10.9889
▁Ocean	-10.9889
▁Rāvana	-10.989
tai	-10.989
▁Englishman	-10.9891
ern	-10.9895
ála	-10.9896
▁(3)	-10.9897
▁attributed	-10.99
).]	-10.9901
▁endeavoured	-10.9903
acy	-10.9904
▁perfection	-10.9909
vent	-10.991
Ex	-10.9913
.--_	-10.9915
coming	-10.9917
▁manners	-10.9917
God	-10.9918
position	-10.9918
comp	-10.9919
▁Army	-10.9919
▁prayed	-10.9923
pul	-10.9924
▁Himalayas	-10.9928
▁obeyed	-10.9932
▁fiery	-10.9934
▁reception	-10.9934
▁parrot	-10.9934
▁furious	-10.9939
▁prompt	-10.9941
▁coward	-10.9942
▁engagement	-10.9944
more	-10.9944
Woodcut	-10.9948
bhâ	-10.9953
▁sam	-10.9956
▁yesterday	-10.9956
▁swamp	-10.996
▁feats	-10.9962
▁beads	-10.9965
▁conquer	-10.9967
▁mon	-10.9975
cat	-10.9976
▁peasant	-10.9978
yā	-10.998
▁Whatever	-10.9983
▁Mâ	-10.9986
▁que	-10.9988
▁steed	-10.9991
▁tin	-10.9998
▁governed	-10.9999
▁98	-11
▁juice	-11.0001
ella	-11.0002
▁Hira	-11.0003
▁shrines	-11.0007
▁mentions	-11.0009
▁0	-11.001
ander	-11.0012
▁None	-11.0012
pper	-11.0012
ounce	-11.0015
▁183	-11.0017
▁Several	-11.0023
▁excuse	-11.0023
▁earthly	-11.0025
▁withdraw	-11.003
▁beating	-11.0033
▁lean	-11.0037
▁worldly	-11.0038
osa	-11.0039
▁Bill	-11.004
tel	-11.004
▁hail	-11.0043
▁reaches	-11.0045
▁application	-11.0046
▁contempt	-11.0046
▁subdivision	-11.0046
▁Bá	-11.0047
▁stout	-11.0048
▁encountered	-11.0049
▁punished	-11.0054
▁septs	-11.0057
▁-----	-11.0059
ement	-11.0063
▁loyal	-11.0067
▁Bhat	-11.0068
wâr	-11.0068
▁honours	-11.0074
▁Gate	-11.0076
yer	-11.0078
these	-11.008
▁Naga	-11.008
bel	-11.0083
▁pouring	-11.0083
▁Port	-11.0085
-1/2	-11.0091
▁Britain	-11.0091
kula	-11.0091
▁`	-11.0092
bin	-11.0094
though	-11.0096
Thus	-11.0096
▁potter	-11.0103
▁newly	-11.0104
rag	-11.0105
▁purely	-11.0105
▁neglect	-11.0109
▁presently	-11.0111
▁complaint	-11.0111
▁Cunningham	-11.0113
▁satisfactory	-11.0113
▁emotion	-11.0113
▁torture	-11.0114
▁Gaya	-11.0114
▁99	-11.0114
▁Jaipur	-11.0115
One	-11.0118
▁code	-11.0124
▁——	-11.0126
nia	-11.0127
vu	-11.0128
Brahman	-11.0131
▁Indo	-11.0134
▁happens	-11.0136
▁challenge	-11.0136
▁illustration	-11.0136
▁ambition	-11.0136
▁breed	-11.0136
▁hatred	-11.0137
▁witnessed	-11.0138
▁fastened	-11.0139
▁blade	-11.0139
▁Hindoos	-11.014
▁lieu	-11.0145
▁conceived	-11.0149
▁suspected	-11.0157
▁conspicuous	-11.0159
▁inference	-11.0159
▁purple	-11.0159
▁submit	-11.016
Chief	-11.0161
▁downward	-11.0161
▁puts	-11.0161
▁stake	-11.0163
▁traced	-11.0166
▁cleansed	-11.0167
▁flash	-11.0171
zu	-11.0173
▁palaces	-11.0174
▁severely	-11.0178
▁173	-11.0179
▁students	-11.0181
▁grieve	-11.0181
▁interested	-11.0181
▁thrust	-11.0181
▁mischief	-11.0182
▁cleared	-11.0183
▁petty	-11.0183
▁Govinda	-11.0184
73	-11.0189
▁connect	-11.0196
hearted	-11.0197
▁Manual	-11.0198
▁relate	-11.02
▁summon	-11.0202
mana	-11.0204
▁ravine	-11.0204
▁Varuna	-11.0205
▁afterward	-11.0206
▁Muni	-11.0207
▁96	-11.0213
▁replace	-11.0214
▁deposit	-11.0215
Ho	-11.0218
▁sank	-11.0219
ack	-11.0227
ν	-11.0227
▁Mississippi	-11.0227
▁continent	-11.0227
▁obscure	-11.0227
▁assisted	-11.0227
▁Spain	-11.0227
▁profound	-11.0228
vidyâ	-11.0229
▁stronger	-11.0231
phe	-11.0234
▁Chapter	-11.0234
ject	-11.0235
▁strangers	-11.0236
▁dull	-11.0243
▁youthful	-11.0244
▁Till	-11.0245
▁IX	-11.0249
▁continuous	-11.025
▁104	-11.025
kam	-11.0253
▁shout	-11.0257
▁voices	-11.026
▁DE	-11.0261
rating	-11.0261
▁Kala	-11.0262
cate	-11.0268
▁trusted	-11.0271
▁indulge	-11.0272
▁calamity	-11.0273
▁terrace	-11.0273
▁grows	-11.0277
▁Madhu	-11.0277
ization	-11.0278
.6.	-11.0282
▁pronounced	-11.0284
▁wealthy	-11.0284
▁Dom	-11.0294
mmer	-11.0296
▁treachery	-11.0296
▁Georgia	-11.0296
pass	-11.0297
▁alms	-11.0297
▁Vasu	-11.0298
HO	-11.0299
▁seats	-11.03
▁battery	-11.03
aba	-11.0301
▁grateful	-11.0302
▁token	-11.0307
atis	-11.0307
cap	-11.0309
jar	-11.0309
ister	-11.0309
▁training	-11.0312
▁rings	-11.0312
▁learnt	-11.0312
▁traces	-11.0319
▁Hebrew	-11.0319
▁breakfast	-11.0319
▁chronicle	-11.0319
▁Arcot	-11.0319
▁organized	-11.032
▁139	-11.0322
▁plates	-11.0331
▁tame	-11.0335
▁ability	-11.0336
81	-11.0338
▁116	-11.0339
▁DISTRIBUT	-11.0342
▁notwithstanding	-11.0342
▁perfume	-11.0342
▁straw	-11.0343
▁dared	-11.0347
▁walks	-11.0349
▁103	-11.0354
▁interpreted	-11.0354
▁Malay	-11.0358
Come	-11.0358
▁backward	-11.0359
▁Mā	-11.036
▁ascertained	-11.0361
▁XXX	-11.0364
▁survive	-11.0365
▁obedience	-11.0366
▁reproach	-11.0366
▁throng	-11.0366
▁paddy	-11.0366
▁Districts	-11.0368
tim	-11.0369
▁Russia	-11.0372
▁adds	-11.0373
▁Have	-11.0375
▁commission	-11.0376
▁’	-11.0377
▁belt	-11.0378
▁costly	-11.0378
▁lamps	-11.0379
hun	-11.038
▁giver	-11.0382
▁tales	-11.0383
▁discuss	-11.0383
▁involved	-11.0386
▁Soc	-11.0388
uv	-11.039
▁systems	-11.0393
▁corruption	-11.0393
▁dismissed	-11.0404
aged	-11.0407
▁sits	-11.0409
▁observing	-11.0412
▁Valley	-11.0412
▁oldest	-11.0413
▁taxes	-11.0413
78	-11.0413
avan	-11.0415
▁continues	-11.0415
▁Kotah	-11.0417
▁suspended	-11.0418
▁invincible	-11.0435
,000,000	-11.0436
▁Castes	-11.0437
▁estates	-11.0438
coloured	-11.0439
▁yell	-11.0447
▁exceeding	-11.0448
▁clothing	-11.0452
▁pull	-11.0454
shan	-11.0456
▁accession	-11.0458
▁beneficial	-11.0459
▁prejudice	-11.0459
▁tobacco	-11.0459
▁thieves	-11.0459
▁harsh	-11.0459
Bo	-11.0463
▁registered	-11.0466
▁ample	-11.0467
▁165	-11.0475
▁accomplishment	-11.0476
▁deck	-11.0479
▁fulfil	-11.0479
mbling	-11.0481
▁shoes	-11.0481
▁encamped	-11.0482
▁immeasurable	-11.0482
▁Women	-11.0482
▁constitutes	-11.0485
▁Kā	-11.0488
▁stations	-11.0497
▁picked	-11.0498
▁relieved	-11.0499
▁1,000	-11.05
▁mystery	-11.0506
▁relic	-11.0506
▁aided	-11.0507
▁prohibition	-11.0509
▁spared	-11.0509
▁colonel	-11.0509
▁Full	-11.0509
▁CO	-11.0515
Po	-11.0521
▁flee	-11.0522
▁functions	-11.0523
▁concept	-11.0523
▁circular	-11.0529
▁resemblance	-11.0529
▁seal	-11.0531
trees	-11.0534
▁fer	-11.0536
▁RE	-11.0536
▁commands	-11.0539
Th	-11.0539
▁Tribes	-11.054
▁Vaisampayana	-11.0541
▁attainment	-11.0544
▁167	-11.0553
▁Prakriti	-11.0553
▁convenient	-11.0553
▁gigantic	-11.0553
any	-11.0555
▁pulled	-11.0557
▁helped	-11.0564
▁guards	-11.0567
▁shake	-11.057
dress	-11.0577
▁destiny	-11.0577
▁piercing	-11.0577
▁recognise	-11.0577
▁scientific	-11.0579
▁gang	-11.0582
Bha	-11.0584
dhan	-11.0586
▁uttering	-11.0592
▁111	-11.0593
▁exceed	-11.0594
fire	-11.0594
kur	-11.0597
▁400	-11.0598
▁chieftains	-11.0599
▁whirl	-11.0601
▁distinctly	-11.0601
▁115	-11.0601
▁Ismail	-11.0602
▁harmless	-11.0605
▁flowing	-11.0606
▁169	-11.0608
kâra	-11.0609
▁buffaloes	-11.0614
▁mock	-11.0617
▁acknowledged	-11.0624
▁instinct	-11.0624
▁promoting	-11.0624
▁vulture	-11.0624
TE	-11.0626
▁106	-11.0627
▁Kor	-11.0629
▁needs	-11.0634
▁Tiru	-11.0645
▁standards	-11.0647
▁homage	-11.0648
▁sar	-11.0649
▁INDIAN	-11.065
▁94	-11.0651
▁250	-11.0656
hwa	-11.0658
▁attach	-11.0658
▁Tal	-11.066
▁entertain	-11.0662
hari	-11.0665
▁wandered	-11.0667
▁favor	-11.0671
ο	-11.0672
▁timid	-11.0672
▁Kesava	-11.0672
▁Afghanistan	-11.0672
▁Matsya	-11.0673
▁Outram	-11.0673
▁tight	-11.0674
▁pluck	-11.0675
▁shine	-11.0676
▁annas	-11.0676
▁amidst	-11.0679
▁Rai	-11.0681
▁Mahar	-11.0682
▁174	-11.0683
▁dug	-11.0684
▁finest	-11.0684
ache	-11.0687
ession	-11.0688
▁stable	-11.069
▁rigid	-11.0696
▁hastened	-11.0697
▁odd	-11.0697
IA	-11.0697
▁crying	-11.0699
▁outrage	-11.0701
▁atoms	-11.0704
▁maintaining	-11.0707
NA	-11.071
▁parade	-11.0711
▁Land	-11.0711
▁peril	-11.0713
▁consist	-11.0714
▁Cast	-11.0717
----------------	-11.072
▁Abhimanyu	-11.072
▁responsibility	-11.072
▁191	-11.0722
▁loyalty	-11.0722
▁thank	-11.0724
▁discussed	-11.0725
ides	-11.0736
▁Shall	-11.0738
▁Caste	-11.0739
▁fun	-11.0741
▁tempest	-11.0744
▁survey	-11.0744
▁facing	-11.0744
▁flour	-11.0746
▁flows	-11.0752
mine	-11.0753
▁sed	-11.0756
▁Gau	-11.0756
mā	-11.0757
▁gloom	-11.0758
▁tenth	-11.0759
▁Over	-11.0764
▁adored	-11.0765
▁recognition	-11.0768
▁bulk	-11.0769
gle	-11.0778
▁abound	-11.0779
pon	-11.0785
ST	-11.0787
▁plead	-11.079
▁pagoda	-11.0793
▁swear	-11.0793
▁warfare	-11.0793
▁fetch	-11.0793
▁vague	-11.0793
▁acknowledge	-11.0793
▁Dalai	-11.0794
▁Chan	-11.0808
▁Civil	-11.0817
dhya	-11.082
▁dates	-11.0822
tya	-11.0824
▁Surya	-11.0824
▁Kir	-11.0825
phi	-11.0829
wing	-11.0832
lip	-11.0832
▁Qu	-11.0834
ç	-11.0835
▁Za	-11.0841
▁Vrishni	-11.0841
▁Nawab	-11.0841
▁Prophet	-11.0841
▁faults	-11.0842
▁fears	-11.0842
▁kin	-11.0845
▁hymn	-11.0849
▁prohibited	-11.0854
dâ	-11.0863
▁desirable	-11.0866
▁screen	-11.0866
▁BY	-11.087
▁dra	-11.0871
▁checked	-11.0874
▁reverent	-11.0874
▁Early	-11.0878
·1	-11.0881
▁89	-11.0883
▁extend	-11.089
▁apprehension	-11.089
▁divinity	-11.089
▁quantities	-11.089
▁Power	-11.089
lies	-11.0893
▁unconscious	-11.0893
worship	-11.0894
▁Gir	-11.0895
▁Grand	-11.0899
MAN	-11.0899
▁widely	-11.0904
▁101	-11.0905
ax	-11.0907
▁battalion	-11.0915
▁obligation	-11.0915
▁forgive	-11.0916
▁linger	-11.0917
come	-11.0924
▁1911	-11.0926
▁dr	-11.0927
▁adorn	-11.0936
▁synonym	-11.0938
▁transcend	-11.0938
▁fertile	-11.0939
▁Nicholson	-11.0939
▁causing	-11.094
▁155	-11.0943
▁garland	-11.0949
giri	-11.0957
tine	-11.0962
▁Moghul	-11.0964
▁alternative	-11.0964
▁opportunities	-11.0964
▁incense	-11.0964
▁Vaisya	-11.0964
▁fortnight	-11.0965
▁134	-11.0967
phy	-11.0968
▁Know	-11.097
jâ	-11.097
ease	-11.0975
āna	-11.0976
▁print	-11.098
▁outline	-11.0983
▁agitated	-11.0989
▁Áhmedábád	-11.0989
▁peak	-11.0992
▁comfortable	-11.0994
▁revealed	-11.0994
▁Qui	-11.0996
▁Manda	-11.1001
▁advised	-11.1001
▁titles	-11.1004
▁rap	-11.1004
mme	-11.1005
▁gratitude	-11.1013
▁mixture	-11.1013
▁studied	-11.1013
▁Museum	-11.1013
▁audience	-11.1013
▁lonely	-11.1013
gue	-11.1014
▁axe	-11.1017
▁lac	-11.1019
ret	-11.102
▁mist	-11.1023
▁Bad	-11.1029
85	-11.1034
ffer	-11.1037
▁transfer	-11.1038
▁phenomena	-11.1038
▁possibility	-11.1038
▁Sara	-11.104
▁eighth	-11.104
▁regent	-11.1041
▁imagined	-11.1042
teen	-11.1046
▁ordained	-11.1047
▁exert	-11.1051
▁attire	-11.1055
▁organs	-11.1057
▁nice	-11.1058
ox	-11.1061
▁Art	-11.1062
▁antiquity	-11.1063
▁scriptural	-11.1063
▁Puri	-11.1069
third	-11.107
▁del	-11.1077
count	-11.1077
MENT	-11.1079
▁careless	-11.108
path	-11.1081
▁156	-11.1082
master	-11.1083
tali	-11.1085
▁financial	-11.1088
▁resplendent	-11.1088
▁greatness	-11.1089
▁employee	-11.109
▁Yuga	-11.1102
▁select	-11.1108
▁ge	-11.1109
▁hit	-11.1112
▁abundance	-11.1113
▁blew	-11.1113
▁costs	-11.1113
▁swarm	-11.1113
▁plateau	-11.1114
▁Take	-11.1116
cid	-11.1119
rak	-11.1121
▁starting	-11.1123
▁Martin	-11.1132
▁attracted	-11.1136
▁gotra	-11.1137
▁Panjáb	-11.1138
▁Râjput	-11.1138
▁remnant	-11.1138
▁unhappy	-11.1138
▁grandfather	-11.1138
▁Divine	-11.1138
▁129	-11.1141
▁undoubtedly	-11.1142
▁overwhelmed	-11.1142
mbu	-11.1142
ette	-11.1144
▁True	-11.1144
▁stages	-11.1144
▁Narada	-11.1146
shaped	-11.1148
▁Sá	-11.1154
▁sy	-11.1154
▁Peru	-11.1157
▁ff	-11.1158
▁troubles	-11.1161
▁People	-11.1163
▁intrigue	-11.1163
▁exercised	-11.1164
▁estimate	-11.1165
▁considerably	-11.1165
▁outbreak	-11.1167
▁omen	-11.1169
▁angle	-11.1169
yn	-11.1171
▁Near	-11.1172
▁listening	-11.1173
·0	-11.1177
▁volunteer	-11.1178
▁generation	-11.1179
▁artist	-11.1183
▁specimens	-11.1186
▁curiosity	-11.1188
▁palanquin	-11.1188
▁proprietor	-11.1188
▁separation	-11.1188
▁petition	-11.1188
▁courtyard	-11.1189
▁adhere	-11.119
▁blessings	-11.1193
para	-11.1193
than	-11.1194
▁Rajas	-11.1196
▁Sau	-11.1197
–1	-11.1198
▁poets	-11.12
▁Sak	-11.1203
▁jaw	-11.1203
▁Use	-11.1205
▁representations	-11.1205
▁impressed	-11.1207
gara	-11.1207
▁apartment	-11.1208
▁117	-11.121
▁prominently	-11.1211
▁Sahadeva	-11.1214
▁channel	-11.1214
▁identification	-11.1214
▁supremacy	-11.1214
▁curtain	-11.1214
▁wrapped	-11.1214
▁gi	-11.1214
seven	-11.1215
▁fulfilled	-11.1215
▁Deity	-11.1218
▁liable	-11.1219
arch	-11.1223
▁Burma	-11.1229
▁Province	-11.123
▁Mahomed	-11.1236
non	-11.1236
LY	-11.1236
▁Comp	-11.1237
▁machine	-11.1237
▁Neither	-11.1239
▁identify	-11.1239
▁folly	-11.1239
▁Syria	-11.1239
▁liability	-11.124
▁bangles	-11.1252
▁cling	-11.1257
▁formation	-11.1257
▁opponent	-11.1264
▁hurry	-11.1264
net	-11.1264
▁trail	-11.1264
▁physician	-11.1266
jñâna	-11.1268
lá	-11.1269
Â	-11.1269
fu	-11.127
77	-11.1271
▁ki	-11.1275
▁Chanda	-11.1277
TI	-11.1277
jaya	-11.1283
▁interpreter	-11.1283
being	-11.1287
▁devour	-11.1288
jee	-11.1288
▁excess	-11.1289
▁labor	-11.1289
▁devoid	-11.129
ography	-11.129
▁roam	-11.1293
mbi	-11.1294
▁wanting	-11.1297
▁Chau	-11.1298
▁rarely	-11.13
string	-11.131
▁attendant	-11.1311
ich	-11.1312
95	-11.1314
▁Latin	-11.1314
—“	-11.1315
▁subsist	-11.1315
▁exquisite	-11.1315
▁pattern	-11.1315
▁preparing	-11.1315
▁steadily	-11.1315
▁Arjun	-11.1318
▁mound	-11.1319
After	-11.132
▁owed	-11.1321
iga	-11.1322
▁Tod	-11.1323
▁assertion	-11.1327
▁purchased	-11.1328
▁mystic	-11.1328
âd	-11.1329
▁frightful	-11.1331
▁Kau	-11.1339
▁feat	-11.1339
4)	-11.1339
▁consort	-11.1341
▁asylum	-11.1341
▁Shaikh	-11.1341
▁agency	-11.1344
power	-11.1347
▁longing	-11.1349
▁bulls	-11.1354
ony	-11.1355
▁stem	-11.1356
▁Mahomedans	-11.1358
▁Babylon	-11.136
lot	-11.1364
▁comprehend	-11.1366
▁producing	-11.1366
5)	-11.1367
▁Sindhia	-11.1368
▁van	-11.1368
▁blaze	-11.1368
▁discharge	-11.1369
▁fowls	-11.1369
▁Pathan	-11.137
▁grains	-11.1371
ett	-11.1371
giving	-11.1372
▁hat	-11.1373
▁bowman	-11.1376
Lo	-11.1376
▁approved	-11.1377
▁push	-11.1377
oke	-11.1378
▁heavens	-11.1379
▁enjoying	-11.1381
▁Ser	-11.1381
▁exhibit	-11.1382
over	-11.1386
▁132	-11.1387
cker	-11.1388
▁bush	-11.139
force	-11.1391
▁intellect	-11.1392
▁remedy	-11.1392
gram	-11.1393
▁implies	-11.1393
▁compare	-11.1395
▁losing	-11.1395
▁litter	-11.1398
mitra	-11.1399
▁pictures	-11.1401
▁Upanishads	-11.1402
▁Panchalas	-11.1402
▁sculpture	-11.1412
igh	-11.1413
▁dashed	-11.1416
▁cherish	-11.1417
▁bullocks	-11.1417
▁conqueror	-11.1417
▁133	-11.1418
▁unexpected	-11.1418
▁alternate	-11.1418
▁Gupta	-11.1418
▁Vijayanagar	-11.1418
▁Orissa	-11.1418
▁whispered	-11.1418
▁purified	-11.1419
▁pilgrims	-11.1426
▁mal	-11.1427
83	-11.1428
▁resumed	-11.1429
▁hairs	-11.1429
▁announced	-11.143
▁Rose	-11.1436
▁endless	-11.1439
yat	-11.1439
▁Anglo	-11.1444
▁baggage	-11.1444
▁nymph	-11.1444
▁modified	-11.1444
▁138	-11.1444
▁Kunbi	-11.1445
▁tracts	-11.1445
▁revolution	-11.1445
▁disguise	-11.1446
sacrifice	-11.1449
▁skins	-11.1451
▁craft	-11.1451
titude	-11.1453
Of	-11.1455
▁apartments	-11.1455
▁considering	-11.1455
▁representatives	-11.1457
▁171	-11.1461
▁reap	-11.1463
▁168	-11.1465
▁Sand	-11.1468
▁damage	-11.1469
▁185	-11.1469
▁Hanumān	-11.1472
▁neglected	-11.1475
titu	-11.1477
Par	-11.1477
▁rooms	-11.1478
▁youngest	-11.1482
ATION	-11.1482
▁vanished	-11.1485
▁Holy	-11.1486
▁accepting	-11.1489
rish	-11.1489
▁undertake	-11.149
▁preparation	-11.1492
τ	-11.1496
▁vassal	-11.1496
▁dispatch	-11.1496
▁heavily	-11.1496
▁assuming	-11.1496
▁Should	-11.1496
▁Gen	-11.1497
▁quit	-11.15
▁125	-11.1501
▁Vyasa	-11.1501
ique	-11.1506
thal	-11.1509
▁hid	-11.1509
·2	-11.1515
▁prop	-11.1515
▁Nambutiri	-11.1522
."'"	-11.1522
▁expelled	-11.1522
▁contented	-11.1524
▁widest	-11.1524
▁crew	-11.1524
▁contents	-11.1524
▁spots	-11.1525
▁improvement	-11.1526
▁customary	-11.1529
jur	-11.1532
print	-11.1538
▁bowmen	-11.1538
▁114	-11.1541
▁92	-11.1545
▁Islands	-11.1545
86	-11.1547
▁persist	-11.1547
tract	-11.1547
▁SIZE	-11.1548
▁entreat	-11.1548
▁recited	-11.1551
▁hospitality	-11.1551
▁Rajputana	-11.1551
▁didst	-11.1553
▁worshipping	-11.1554
▁thereupon	-11.1556
▁truthful	-11.1563
▁unde	-11.1563
got	-11.1564
▁Mani	-11.1565
▁darts	-11.1565
▁Shan	-11.1566
▁Hard	-11.1568
▁proclaim	-11.1573
▁World	-11.1574
▁agriculture	-11.1574
▁majesty	-11.1574
▁burial	-11.1574
wo	-11.1574
▁meantime	-11.1576
▁stores	-11.1576
·4	-11.1577
▁stored	-11.1577
▁swing	-11.1577
▁â	-11.1577
ought	-11.1584
────	-11.1586
▁Alan	-11.1587
▁religions	-11.159
▁inflicted	-11.1597
▁swallow	-11.1599
▁Douglas	-11.16
▁THAT	-11.16
▁precaution	-11.16
▁stalk	-11.16
▁traditional	-11.1602
▁ST	-11.1602
▁161	-11.1605
▁model	-11.1608
serve	-11.1608
▁danced	-11.1618
III	-11.1623
▁187	-11.1626
▁Vasishtha	-11.1626
▁civilisation	-11.1626
▁fountain	-11.1626
▁Rávaṇ	-11.1626
▁shrub	-11.1626
▁Khond	-11.163
llah	-11.1632
▁executed	-11.1633
▁types	-11.1636
▁plunged	-11.1638
▁requested	-11.1638
▁lasted	-11.1639
▁jealous	-11.1642
▁Hall	-11.1643
amma	-11.1649
▁remind	-11.1652
▁Bhrigu	-11.1653
▁absurd	-11.1653
▁predecessor	-11.1653
▁prescribed	-11.1653
▁Text	-11.1653
▁warned	-11.1654
▁creeper	-11.1655
▁relationship	-11.1655
▁121	-11.1658
▁serpents	-11.1662
ENT	-11.1663
▁negotiations	-11.1663
▁penetrated	-11.1666
▁tre	-11.1673
▁AN	-11.1673
aksha	-11.1676
▁valleys	-11.1676
▁119	-11.1678
▁sailed	-11.1678
▁Mussulman	-11.1679
▁guess	-11.168
each	-11.168
▁recognize	-11.1682
_--	-11.1683
▁grim	-11.1686
▁blows	-11.1686
▁sup	-11.1689
▁Mari	-11.1692
▁windows	-11.1694
▁Push	-11.1695
▁differences	-11.1702
▁recall	-11.1705
▁indebted	-11.1706
▁slumber	-11.1706
▁vigour	-11.1706
▁affirm	-11.1706
▁unwilling	-11.1706
▁flung	-11.1708
▁ahead	-11.1711
▁Sindhu	-11.1712
▁beds	-11.1713
▁Pâ	-11.1717
organ	-11.1718
▁Râja	-11.1719
▁Chamar	-11.1721
▁boiled	-11.1721
▁conceal	-11.173
▁destined	-11.1732
▁hostility	-11.1732
▁scream	-11.1732
▁throws	-11.1734
▁Jones	-11.1734
▁bullock	-11.1735
soldiers	-11.1739
jit	-11.174
▁Ly	-11.174
▁loaded	-11.1743
past	-11.1752
hut	-11.1755
▁WITH	-11.1759
▁horrible	-11.1759
▁trumpet	-11.1759
▁architectural	-11.1759
▁Hastings	-11.176
▁transferred	-11.176
▁Nakula	-11.1761
iff	-11.1762
▁sunk	-11.1765
▁robe	-11.1765
▁quote	-11.1767
▁sinless	-11.1773
▁hosts	-11.1774
▁thanks	-11.1779
rra	-11.1781
such	-11.1782
▁Lingayat	-11.1786
▁strive	-11.1786
▁commence	-11.1787
▁settlers	-11.1788
▁specimen	-11.1788
▁hastily	-11.1789
▁locks	-11.179
ean	-11.1794
▁rainy	-11.1795
▁chi	-11.1797
▁sickness	-11.1799
ûr	-11.18
▁vols	-11.1801
uto	-11.1807
▁rows	-11.1807
▁pond	-11.1808
āra	-11.1809
▁balls	-11.181
▁whisper	-11.1812
▁circulation	-11.1813
May	-11.1813
▁Paraiyan	-11.1813
▁Saint	-11.1817
▁BE	-11.1818
ruti	-11.1818
▁treasures	-11.1819
▁onward	-11.1819
raw	-11.1819
pg	-11.1819
▁visits	-11.182
▁Gan	-11.1823
cription	-11.1824
▁perished	-11.1827
▁renewed	-11.1829
turn	-11.183
▁Goa	-11.1837
▁defended	-11.1837
▁irresistible	-11.184
dah	-11.1841
▁stuck	-11.1842
▁feeble	-11.1844
Third	-11.1845
mate	-11.1845
▁Virginia	-11.1848
bro	-11.1849
▁──────────────	-11.1849
▁alas	-11.1852
▁drops	-11.1852
nish	-11.1856
▁similarly	-11.1857
▁robber	-11.1861
▁Ná	-11.1863
▁farm	-11.1865
▁Moslem	-11.1866
▁wreath	-11.1867
▁dissolution	-11.1867
▁Pandit	-11.1867
▁insects	-11.1869
▁Abu	-11.1872
▁drama	-11.1874
▁Pha	-11.1874
pet	-11.1874
sika	-11.1876
▁Dhan	-11.1876
front	-11.188
▁reins	-11.1884
▁opinions	-11.1884
▁haste	-11.1885
▁consult	-11.1886
rug	-11.1889
▁counted	-11.189
▁Kanauj	-11.1894
▁enraged	-11.1894
▁Pun	-11.1895
▁semi	-11.1895
camp	-11.1896
▁tremble	-11.1897
▁Jiva	-11.1897
Your	-11.1898
▁travelled	-11.1899
▁adjoining	-11.1899
▁annually	-11.1899
bear	-11.19
▁motive	-11.19
iest	-11.1902
▁cash	-11.1902
▁denote	-11.1905
▁painting	-11.1906
▁chains	-11.1907
▁writings	-11.1909
▁boar	-11.1911
▁Mary	-11.1912
▁nails	-11.1914
▁Year	-11.1916
▁Fr	-11.1919
▁les	-11.1919
▁123	-11.192
▁monastery	-11.1921
▁peninsula	-11.1921
▁thunderbolt	-11.1921
▁opium	-11.1921
rung	-11.1922
▁u	-11.1924
▁involve	-11.1924
▁blossom	-11.193
▁distressed	-11.1931
▁plum	-11.1932
▁festivals	-11.1933
▁XI	-11.1936
▁dish	-11.194
▁Pol	-11.1941
▁allied	-11.1946
▁proverb	-11.1947
num	-11.1947
▁divorce	-11.1948
▁crystal	-11.1948
dín	-11.1949
▁feeding	-11.195
▁buck	-11.1951
▁raid	-11.1952
âya	-11.1952
▁depth	-11.1954
▁moderate	-11.1957
▁Mayo	-11.1962
▁Saka	-11.1965
▁136	-11.1966
▁resembles	-11.1968
other	-11.1968
▁engineer	-11.197
▁Arch	-11.197
▁confess	-11.197
▁Five	-11.1971
▁formula	-11.1974
▁Field	-11.1975
▁womb	-11.1975
▁Vidura	-11.1975
▁darling	-11.1975
▁violate	-11.1975
▁Ham	-11.1977
▁adoption	-11.198
▁CH	-11.198
▁breadth	-11.1986
▁91	-11.1992
▁166	-11.1996
oving	-11.2
▁philosopher	-11.2002
▁regulation	-11.2002
▁sanction	-11.2003
point	-11.2005
▁signed	-11.2005
▁resisted	-11.2007
▁Maharajah	-11.2008
▁weep	-11.2012
·9	-11.2014
▁log	-11.2015
84	-11.2019
▁abroad	-11.203
▁restless	-11.2032
▁preside	-11.2032
mala	-11.2033
een	-11.2034
With	-11.2037
▁cheek	-11.2038
▁SE	-11.2039
▁Mall	-11.204
▁min	-11.2045
▁measured	-11.2047
▁Edward	-11.205
miss	-11.2052
▁captives	-11.2056
▁Ara	-11.2056
▁Further	-11.2057
▁cliff	-11.2057
▁Terms	-11.2057
▁federal	-11.2057
▁consulted	-11.2058
▁stuff	-11.206
posing	-11.2063
father	-11.2066
▁lore	-11.2066
deo	-11.2072
▁fishing	-11.2075
▁Hill	-11.2075
▁towers	-11.2077
▁develop	-11.2081
▁await	-11.2082
▁tan	-11.2084
▁Knowledge	-11.2085
▁suffice	-11.2085
▁scalp	-11.2085
▁meanwhile	-11.2086
▁orange	-11.2088
▁numbered	-11.2094
▁bells	-11.2098
▁coral	-11.2099
áji	-11.2101
kil	-11.2102
▁achieve	-11.2104
▁Brahmins	-11.2111
▁maintenance	-11.2112
▁residing	-11.2112
▁tremendous	-11.2112
▁disgust	-11.2112
▁void	-11.2112
▁elect	-11.2113
▁vicious	-11.2114
Con	-11.2115
▁damages	-11.2117
▁everybody	-11.2117
▁chastiser	-11.2117
▁lend	-11.2118
▁detailed	-11.2121
▁Amber	-11.2123
uta	-11.2128
dana	-11.2129
▁Aryans	-11.2132
▁certainty	-11.2136
▁staying	-11.2137
nation	-11.2137
▁zeal	-11.2139
▁chinchona	-11.214
▁Fraser	-11.214
▁libations	-11.2141
▁Turk	-11.2141
▁key	-11.2144
▁occasional	-11.215
▁regularly	-11.215
about	-11.215
▁interrupted	-11.2153
▁reserved	-11.2156
Ind	-11.2162
▁Raya	-11.2162
▁Vaishnav	-11.2163
book	-11.2166
▁expend	-11.2168
▁pleasures	-11.2168
▁carpet	-11.2171
▁cited	-11.2173
▁joyful	-11.2173
late	-11.2176
▁hook	-11.2176
3)	-11.2178
▁withdrawn	-11.2179
▁achievement	-11.2183
▁prim	-11.2184
▁peaks	-11.2184
▁Hor	-11.2185
▁essentially	-11.2186
▁representation	-11.2187
▁insisted	-11.2193
▁accurate	-11.2196
▁drank	-11.2196
▁murderer	-11.2196
▁Turn	-11.2197
Sir	-11.2199
▁eggs	-11.2199
▁Dec	-11.22
▁groves	-11.2204
▁Dhar	-11.2204
▁Jh	-11.2204
iyar	-11.221
▁Never	-11.2214
▁sorts	-11.2218
▁menial	-11.2223
▁Parliament	-11.2224
▁solitary	-11.2224
▁whither	-11.2224
REACH	-11.2224
▁Ahmad	-11.2224
▁lakhs	-11.2224
▁oppose	-11.2228
▁sovereigns	-11.2231
▁panic	-11.2233
▁householder	-11.2234
▁vigorous	-11.2235
len	-11.2236
▁sprinkled	-11.2238
.[10	-11.2246
▁Much	-11.2247
▁newspaper	-11.2252
▁wondrous	-11.2252
▁counsellors	-11.2252
▁crack	-11.2252
▁accent	-11.2252
▁prosperous	-11.2252
96	-11.2257
▁137	-11.2258
▁Q	-11.2258
Pl	-11.2262
cum	-11.2263
▁preceded	-11.2266
▁defined	-11.2269
▁paint	-11.2273
▁educational	-11.2274
▁Donation	-11.2276
▁avert	-11.2277
oose	-11.2277
▁Between	-11.228
▁advocate	-11.228
▁Finally	-11.228
▁Sugríva	-11.228
▁senior	-11.228
▁adult	-11.228
▁communities	-11.228
▁consented	-11.2282
BOOK	-11.2288
▁adore	-11.2288
▁Ul	-11.2301
These	-11.2308
ö	-11.2308
▁amusement	-11.2308
▁yore	-11.2308
▁cursed	-11.231
▁bastion	-11.231
▁arising	-11.2311
▁118	-11.2312
▁ram	-11.2323
VA	-11.2328
91	-11.233
79	-11.2331
iii	-11.2332
tî	-11.2336
▁poverty	-11.2336
▁probability	-11.2336
▁translator	-11.2336
▁sorry	-11.2336
▁Jesus	-11.2337
▁alarmed	-11.2337
▁recollection	-11.2343
▁131	-11.2347
▁shew	-11.2351
▁Rig	-11.2353
▁122	-11.2353
▁extends	-11.2355
bbe	-11.2355
▁indifferent	-11.2355
▁Drupada	-11.2365
▁atmosphere	-11.2365
▁farewell	-11.2365
▁bayonet	-11.2365
vocation	-11.2365
poli	-11.2368
▁pine	-11.2368
dharma	-11.237
▁Pen	-11.2373
▁musical	-11.2376
▁Kin	-11.2377
burg	-11.2378
▁nobody	-11.2378
▁cult	-11.2378
sala	-11.2383
mah	-11.2391
Qu	-11.2391
▁changing	-11.2393
▁pigeon	-11.2393
▁invitation	-11.2393
▁marvel	-11.2394
▁arrange	-11.2396
▁hideous	-11.2397
▁Jogi	-11.24
▁Origin	-11.2402
ayan	-11.2403
▁arguments	-11.2406
▁Baiga	-11.2408
AGE	-11.2408
tika	-11.2409
▁163	-11.2411
OS	-11.2412
▁Accordingly	-11.2412
▁contributions	-11.2413
▁injured	-11.2414
▁113	-11.2415
▁spark	-11.242
▁College	-11.2421
▁Release	-11.2421
▁ambassador	-11.2421
▁inevitable	-11.2421
▁Qua	-11.2422
▁commencement	-11.2423
▁Chauhan	-11.2425
▁sounded	-11.2431
anam	-11.2431
▁absorbed	-11.2433
▁bone	-11.2434
▁153	-11.2434
▁mourning	-11.2447
▁penalty	-11.245
UM	-11.2455
▁comrades	-11.2459
▁vegetables	-11.246
hoo	-11.2461
then	-11.2461
▁Teli	-11.2461
úr	-11.2462
▁counter	-11.2463
▁stir	-11.2463
;"	-11.2464
▁computer	-11.2467
▁monument	-11.2467
_.]	-11.2468
▁interval	-11.2469
▁prime	-11.2478
▁climb	-11.2478
▁Jerusalem	-11.2479
▁Rajpoot	-11.2479
▁assumption	-11.2479
▁fidelity	-11.2479
▁miracle	-11.2479
▁piety	-11.2479
▁skilful	-11.2479
▁disturb	-11.2479
▁mythology	-11.2479
▁defile	-11.2479
vya	-11.2481
▁hint	-11.2481
▁Royalty	-11.2482
82	-11.2482
Mar	-11.2482
llo	-11.2483
▁decline	-11.2484
mur	-11.2485
▁eagerly	-11.2489
▁monuments	-11.249
▁126	-11.2491
▁wielder	-11.2496
ibus	-11.2507
▁FULL	-11.2507
▁antagonist	-11.2507
▁baffled	-11.2511
▁giants	-11.2512
ole	-11.2515
▁Hear	-11.2526
·3	-11.2526
▁Ver	-11.2526
oda	-11.2531
▁denotes	-11.2531
▁indicating	-11.2536
▁illness	-11.2537
body	-11.2539
▁assign	-11.2542
▁southward	-11.2543
while	-11.2544
▁Bear	-11.2545
▁144	-11.2545
88	-11.2546
ule	-11.255
▁bard	-11.255
kya	-11.2552
▁Kot	-11.2553
▁ultimately	-11.2553
▁scholar	-11.2558
▁usage	-11.256
▁bud	-11.2562
▁nowhere	-11.2562
.[11	-11.2563
▁flies	-11.2564
▁cowherd	-11.2565
▁START	-11.2565
▁pleasing	-11.2566
▁Cochin	-11.2566
▁Very	-11.2566
▁talent	-11.2569
▁plundered	-11.257
▁Sad	-11.2571
▁exalted	-11.2574
▁Town	-11.2578
pho	-11.2579
▁Seven	-11.258
range	-11.258
ht	-11.2581
▁Tro	-11.2583
lec	-11.2585
▁rolling	-11.2586
▁strengthen	-11.2587
▁principally	-11.2589
▁instructed	-11.259
▁realized	-11.2591
--“	-11.2594
▁forcibly	-11.2594
▁obstacle	-11.2594
▁envoy	-11.2594
▁ascribed	-11.2595
▁Canara	-11.2596
ABILITY	-11.2598
▁blown	-11.2598
▁Nayars	-11.2599
▁Yes	-11.2602
girl	-11.2603
▁solar	-11.2604
▁collecting	-11.2605
▁PG	-11.2606
▁waved	-11.2614
▁institution	-11.2615
97	-11.2618
▁Dun	-11.262
▁Nevertheless	-11.2623
▁substantial	-11.2623
▁fanatic	-11.2624
▁lunar	-11.2624
▁Highlanders	-11.2625
▁foul	-11.2629
▁jug	-11.263
▁roused	-11.2633
▁Gur	-11.2634
▁164	-11.2635
▁condemned	-11.2642
vy	-11.2642
▁128	-11.2644
▁Creek	-11.2645
anta	-11.2649
▁cheerfully	-11.265
▁Mc	-11.2651
▁ASCII	-11.2652
▁testimony	-11.2652
▁LICEN	-11.2652
▁wilderness	-11.2652
▁Gandiva	-11.2652
▁margin	-11.2653
▁Compare	-11.2653
ended	-11.2663
wise	-11.2664
donate	-11.2664
▁flu	-11.2664
▁shells	-11.2666
tara	-11.267
▁dam	-11.2672
Al	-11.268
▁WARRANT	-11.268
▁Redistributi	-11.2682
▁Ptolemy	-11.2682
▁adoration	-11.2682
▁shriek	-11.2682
▁arriving	-11.2682
ibility	-11.2682
▁lance	-11.2682
▁WARRANTY	-11.2683
▁excessive	-11.2683
▁Nagpur	-11.2683
▁Gunga	-11.2685
▁rider	-11.2687
▁salute	-11.2688
▁consume	-11.2688
▁mingled	-11.269
▁electronically	-11.2691
▁talked	-11.2692
gate	-11.2692
lah	-11.2697
▁breathing	-11.2701
▁Sch	-11.2704
divisions	-11.2705
Va	-11.2705
▁respected	-11.2709
▁errors	-11.2709
putra	-11.2711
▁gracious	-11.2711
HAR	-11.2712
▁suspect	-11.2713
▁Purusha	-11.2715
yar	-11.2716
▁massive	-11.2716
▁teachers	-11.2718
▁swan	-11.2723
93	-11.2723
▁LA	-11.2725
▁158	-11.2727
Tis	-11.2731
▁rocky	-11.2735
ope	-11.274
▁assurance	-11.274
▁disposal	-11.274
▁timber	-11.274
▁disaster	-11.274
▁heathen	-11.274
▁inquiry	-11.274
▁calf	-11.2741
▁pound	-11.2741
▁submission	-11.2742
▁Fo	-11.2742
self	-11.2744
▁Kapu	-11.2746
▁172	-11.2754
▁bless	-11.2756
Head	-11.2761
mmon	-11.2761
▁Sacrifice	-11.277
▁clerk	-11.277
▁replies	-11.277
▁sterling	-11.277
▁management	-11.2771
▁incidents	-11.2772
ene	-11.2772
▁murmur	-11.2772
▁score	-11.2775
▁Chitor	-11.2778
fr	-11.2778
▁unite	-11.2778
▁anybody	-11.278
▁thorough	-11.2782
▁wid	-11.2785
gur	-11.2787
▁dealt	-11.2791
own	-11.2794
▁historian	-11.2795
▁Nayar	-11.2799
▁devotees	-11.2799
▁entrusted	-11.2799
▁transaction	-11.2799
▁Cyrus	-11.2799
▁159	-11.28
▁Badaga	-11.28
▁Verily	-11.28
▁ditch	-11.2801
ká	-11.2801
marriage	-11.2804
·8	-11.2805
▁messengers	-11.2807
▁Note	-11.2808
▁XXV	-11.2809
▁shouting	-11.2809
▁350	-11.281
nya	-11.2816
bur	-11.2817
▁Chil	-11.282
Pro	-11.2821
";	-11.2822
▁Mohammedans	-11.2822
▁successfully	-11.2823
▁Sm	-11.2826
▁resident	-11.2826
▁limb	-11.2827
▁Kara	-11.2827
▁Nerbudda	-11.2829
▁conjunction	-11.2829
▁energetic	-11.2829
▁proclamation	-11.2829
▁nerve	-11.2829
▁organization	-11.2829
▁farmer	-11.2831
▁unjust	-11.2832
chin	-11.2833
Ā	-11.2838
▁145	-11.2842
▁Ahir	-11.2843
▁imply	-11.2845
▁cheeks	-11.285
▁shaved	-11.2851
dies	-11.2851
▁lucky	-11.2852
Le	-11.2853
gala	-11.2855
▁Scythia	-11.2859
▁besieged	-11.2859
▁cholera	-11.2859
▁cunning	-11.2859
▁explore	-11.2859
▁1901	-11.286
kala	-11.2864
▁dirty	-11.2864
▁ghosts	-11.2866
▁Allah	-11.2867
▁speaker	-11.2868
▁manifested	-11.2869
▁advantages	-11.2874
▁somewhere	-11.2875
▁ate	-11.288
bearer	-11.2883
▁ON	-11.2886
shore	-11.2889
▁confused	-11.2889
▁austere	-11.2889
▁Ce	-11.2892
Vanilla	-11.2892
▁Jahangir	-11.2893
▁cro	-11.2894
▁swiftly	-11.2895
▁Bat	-11.2896
▁trap	-11.2896
wed	-11.2897
▁gap	-11.2898
▁computers	-11.29
▁questioned	-11.2901
▁ultimate	-11.2901
Mah	-11.2901
▁grants	-11.2903
▁speeches	-11.2905
è	-11.2907
▁designs	-11.291
vā	-11.2914
▁attract	-11.2915
▁horizon	-11.2917
▁Syrian	-11.2919
▁Australia	-11.2919
new	-11.292
▁XLI	-11.292
▁introduce	-11.2925
kul	-11.2929
▁locality	-11.2933
▁Jehan	-11.2933
▁bloody	-11.2933
▁borrowed	-11.2934
âm	-11.2936
▁Berar	-11.2937
▁Said	-11.2943
verse	-11.2946
▁insist	-11.2948
ι	-11.2949
▁Jodhpur	-11.2949
▁aggregate	-11.2949
▁simplicity	-11.2949
▁flaming	-11.2949
▁committee	-11.2949
▁evolution	-11.2949
▁nominal	-11.295
▁Canning	-11.2951
▁je	-11.2951
▁Karma	-11.2952
▁Upani	-11.2952
EST	-11.2962
▁Sura	-11.2962
───────────────	-11.2963
áb	-11.2969
▁blossoms	-11.2973
▁fragrant	-11.2979
▁feather	-11.2979
▁toddy	-11.2981
▁avoided	-11.2983
▁Night	-11.2984
▁Val	-11.2988
apped	-11.299
▁coal	-11.2992
▁mill	-11.2996
▁190	-11.3
▁rod	-11.3004
▁destroyer	-11.3007
▁strife	-11.3009
▁weigh	-11.301
mkhya	-11.3011
▁concentrated	-11.3014
▁Gad	-11.3015
board	-11.3023
▁profits	-11.3025
▁Kate	-11.3026
▁Nai	-11.3031
▁declined	-11.3034
yá	-11.3036
.7.	-11.3037
▁Burmese	-11.3039
▁Endued	-11.3039
▁waving	-11.3039
▁Shâh	-11.3039
▁Mathura	-11.304
▁inheritance	-11.304
▁student	-11.304
▁dice	-11.3042
▁arrest	-11.3042
▁fortified	-11.3044
▁Pari	-11.3045
190	-11.3053
▁superiority	-11.3055
▁bitterly	-11.3058
▁pat	-11.3059
▁Bhan	-11.3066
nkhya	-11.3068
▁exclusion	-11.307
▁fundamental	-11.307
▁marvellous	-11.307
▁bodily	-11.307
▁implied	-11.307
▁card	-11.3073
▁148	-11.3074
▁crimes	-11.3076
duce	-11.3076
graph	-11.3077
▁Golden	-11.308
▁Sûtras	-11.3081
gna	-11.3084
▁Mint	-11.3084
▁chap	-11.3085
▁insurgents	-11.3086
▁Sale	-11.3088
·6	-11.3089
tram	-11.3089
▁imported	-11.3089
▁asserted	-11.309
▁versed	-11.309
IAN	-11.3094
▁praised	-11.3096
▁||	-11.3096
Ku	-11.3097
▁Diggle	-11.31
▁tramp	-11.3101
▁expectation	-11.3101
▁secretly	-11.3101
▁jump	-11.3103
hee	-11.3104
▁eastward	-11.3105
ote	-11.3105
▁Free	-11.3105
▁Highness	-11.3108
▁ensued	-11.3108
▁pearl	-11.311
94	-11.311
▁AR	-11.311
VIII	-11.3111
RS	-11.3113
▁daylight	-11.3119
▁Pad	-11.3122
avya	-11.3122
▁motives	-11.3125
▁jumped	-11.3128
bow	-11.3128
tak	-11.3128
ebook	-11.3131
▁vegetation	-11.3131
▁repent	-11.3131
▁preferred	-11.3132
▁riches	-11.3135
▁Vaishnava	-11.3136
▁usurp	-11.3136
▁Banks	-11.3137
▁urge	-11.3138
▁sweep	-11.3139
Man	-11.314
▁assistant	-11.3144
▁lions	-11.3147
▁experiences	-11.3148
Kar	-11.315
▁raja	-11.3152
▁honourable	-11.3153
maker	-11.3155
▁Salt	-11.3156
llus	-11.3157
▁begging	-11.3159
▁therein	-11.316
▁lakes	-11.3161
▁Solomon	-11.3161
▁library	-11.3161
▁eagle	-11.3161
▁imitation	-11.3161
ABLE	-11.3162
▁charity	-11.3163
▁openly	-11.3163
▁fiercely	-11.3164
▁finish	-11.3165
uit	-11.3167
▁Pin	-11.3167
▁deposited	-11.3168
▁accused	-11.3168
▁laughter	-11.3169
99	-11.3169
gent	-11.3171
▁holes	-11.3174
▁bravery	-11.3176
bird	-11.3176
▁civilian	-11.3183
▁sung	-11.319
▁Iroquois	-11.3192
▁Vishṇu	-11.3192
▁devout	-11.3192
▁monsoon	-11.3192
▁Bishop	-11.3193
▁prevails	-11.3193
▁stirred	-11.3193
▁inflict	-11.3196
▁kick	-11.3197
98	-11.3197
▁Hun	-11.32
▁offender	-11.3203
door	-11.3204
·7	-11.3205
▁revered	-11.3205
▁+	-11.3211
87	-11.3212
▁Did	-11.3212
▁wan	-11.3213
▁breathe	-11.3214
▁Shu	-11.3222
▁127	-11.3222
▁exploit	-11.3223
▁literary	-11.3223
▁Jewish	-11.3224
▁Andaman	-11.3224
▁ashamed	-11.3224
▁stepped	-11.3225
hî	-11.323
▁bind	-11.323
▁yoke	-11.323
▁northward	-11.3231
▁miss	-11.3243
▁wit	-11.3244
▁procured	-11.3244
singh	-11.3246
love	-11.3252
▁124	-11.3253
át	-11.3254
▁magazine	-11.3254
▁groan	-11.3254
sûtra	-11.3254
▁Historical	-11.3259
▁conquerors	-11.3261
▁sore	-11.3264
▁equi	-11.3266
Good	-11.3271
▁encouraged	-11.3271
▁intermarry	-11.3285
▁Friday	-11.3285
▁Work	-11.3285
▁cheap	-11.3287
▁stronghold	-11.3287
▁observances	-11.329
▁hiding	-11.3291
▁relates	-11.3294
▁bolt	-11.3296
dung	-11.3296
▁154	-11.3296
▁Assyrian	-11.3297
▁Page	-11.3297
▁pointing	-11.3302
▁stretch	-11.3314
▁dispel	-11.3315
▁Kshatrapa	-11.3316
▁Sioux	-11.3316
▁expenditure	-11.3316
circ	-11.332
▁Er	-11.332
▁asceticism	-11.3322
▁Taking	-11.3322
▁realize	-11.3326
▁Kama	-11.333
▁Give	-11.333
▁revenues	-11.3331
▁fellows	-11.3336
▁Six	-11.3336
▁contradict	-11.3339
▁Anga	-11.3342
▁1893	-11.3342
▁privileges	-11.3346
▁(4)	-11.3347
▁Canarese	-11.3347
▁Káthiáváda	-11.3347
▁twelfth	-11.3347
▁Grandsire	-11.3347
▁carpenter	-11.3347
▁wolf	-11.3347
▁productive	-11.3349
▁1858	-11.3356
▁intend	-11.3357
▁143	-11.336
▁ornamented	-11.3363
sect	-11.3365
Bri	-11.3368
▁Arabic	-11.3371
▁dash	-11.3371
▁seriously	-11.3372
▁crisis	-11.3379
▁annoy	-11.3379
▁rattle	-11.338
▁wax	-11.3384
92	-11.3384
▁African	-11.3385
▁Yadu	-11.3385
pala	-11.3385
▁badly	-11.339
▁hum	-11.34
▁Nearly	-11.3401
▁ripe	-11.3401
▁arisen	-11.3401
▁wheels	-11.3402
▁elders	-11.3402
▁originated	-11.3406
formed	-11.3408
ε	-11.341
▁indigenous	-11.341
▁leisure	-11.341
▁melancholy	-11.341
▁significance	-11.341
▁tranquillity	-11.341
▁enhance	-11.341
▁cartridge	-11.341
▁canst	-11.3411
▁passionate	-11.3415
kun	-11.3417
▁substitute	-11.3418
look	-11.3421
500	-11.3422
▁tiny	-11.3426
▁Bun	-11.3427
▁Fair	-11.3427
▁neat	-11.3427
pose	-11.3429
▁Burn	-11.343
▁Purana	-11.3431
▁specific	-11.3442
▁Lāma	-11.3442
▁hawk	-11.3442
▁creator	-11.3442
wari	-11.3444
raja	-11.3446
▁westward	-11.3446
▁coolies	-11.3446
hot	-11.3447
▁prices	-11.3448
▁Janaka	-11.3449
▁examine	-11.345
▁149	-11.3454
▁Padma	-11.3455
▁threat	-11.346
▁Bhatti	-11.3461
▁rejected	-11.3468
▁tombs	-11.3472
▁legitimate	-11.3473
▁bottle	-11.3473
▁trading	-11.3473
▁146	-11.3474
dhu	-11.3475
▁stray	-11.3477
▁couch	-11.3477
▁oppression	-11.3477
▁stamp	-11.3477
▁cot	-11.348
ION	-11.3483
▁deserves	-11.3484
Ne	-11.3485
▁chill	-11.3488
Veda	-11.349
▁injure	-11.3495
▁wondered	-11.3498
▁Excellency	-11.3505
▁Nescience	-11.3505
▁Sultán	-11.3505
▁isolated	-11.3505
▁annals	-11.3506
Per	-11.3507
▁valid	-11.3507
▁exhibited	-11.3507
▁Jud	-11.3513
▁fitted	-11.3513
▁----	-11.3514
Journal	-11.3517
used	-11.3518
▁invite	-11.3518
▁suck	-11.3519
▁spreading	-11.3521
▁communicated	-11.3522
▁retreated	-11.3522
▁Sudras	-11.3526
▁Bengali	-11.3532
▁Asura	-11.3535
▁genuine	-11.3537
▁identity	-11.3537
▁investigation	-11.3537
▁School	-11.3537
▁batteries	-11.3538
▁141	-11.3538
▁horseback	-11.3539
▁localities	-11.3541
▁sincere	-11.3543
▁indications	-11.3543
▁alteration	-11.3544
pti	-11.3545
▁Chitra	-11.3545
Ibid	-11.3548
▁XII	-11.3551
▁Indies	-11.3552
▁assailed	-11.3558
vant	-11.3559
▁mistaken	-11.3561
▁stag	-11.3562
▁heaps	-11.3562
amba	-11.3565
▁Kaikeyi	-11.3569
▁astonished	-11.3569
▁puberty	-11.3569
▁delusion	-11.3569
▁snatch	-11.3569
▁tyrant	-11.3569
▁drift	-11.3569
▁slipped	-11.357
▁vile	-11.357
ratha	-11.3573
▁complain	-11.3576
▁instruct	-11.3577
▁vine	-11.3578
!)	-11.3578
▁Madhava	-11.358
▁dye	-11.3583
vol	-11.3586
▁162	-11.3596
▁feud	-11.3601
▁DO	-11.3601
▁cultivating	-11.3601
▁unrighteous	-11.3601
▁withdrew	-11.3601
▁causal	-11.3601
▁Peshwa	-11.3601
▁anguish	-11.3601
▁ninth	-11.3601
▁civilized	-11.3603
▁submitted	-11.3604
faced	-11.3605
Ro	-11.3605
▁inhabit	-11.3607
▁invest	-11.3608
ára	-11.3612
▁selfish	-11.362
▁manager	-11.3623
▁paused	-11.3625
▁pigs	-11.3625
ppa	-11.3627
▁discontent	-11.3633
▁guarantee	-11.3633
▁promotion	-11.3633
▁shepherd	-11.3633
▁Hodson	-11.3633
▁cobra	-11.3633
▁observant	-11.3633
▁loudly	-11.3635
▁restrained	-11.3636
▁fuel	-11.3637
wind	-11.3638
▁readers	-11.3638
▁pause	-11.3643
▁jealousy	-11.3646
▁Bráhman	-11.3647
olo	-11.3651
▁clothed	-11.3657
Un	-11.3659
▁saluted	-11.3659
anya	-11.366
▁dwells	-11.3665
▁President	-11.3665
▁Saturday	-11.3665
▁University	-11.3665
▁experiment	-11.3665
▁saving	-11.3666
dhana	-11.3666
▁critic	-11.3672
lf	-11.3674
▁avenge	-11.3675
Colonel	-11.3677
white	-11.3677
▁visitors	-11.3679
▁fugitives	-11.3682
▁Mis	-11.3682
mel	-11.3683
▁Jerdon	-11.3685
oni	-11.3688
▁shave	-11.3689
▁estimated	-11.3696
VII	-11.3696
▁college	-11.3698
▁declaring	-11.3698
▁destructive	-11.3698
hár	-11.3698
▁widespread	-11.3698
▁brute	-11.3699
▁Garden	-11.37
▁philosophical	-11.3705
▁Macedonian	-11.3705
▁Lower	-11.371
gir	-11.3713
▁142	-11.3714
zam	-11.3715
▁invaded	-11.3719
▁radi	-11.3722
▁wishing	-11.3725
lent	-11.3725
▁astonishment	-11.373
▁Ajmer	-11.373
89	-11.3734
▁cultivate	-11.3739
▁assemble	-11.3739
▁successors	-11.3741
dem	-11.375
▁threatening	-11.3751
▁forgot	-11.3755
▁Ridge	-11.3763
▁Saugor	-11.3763
▁reckless	-11.3763
▁Mír	-11.3763
▁brush	-11.3764
vala	-11.3766
▁converse	-11.3767
▁regain	-11.3768
▁Gang	-11.3769
▁tap	-11.3773
▁Assam	-11.3775
▁151	-11.3776
▁guided	-11.3779
▁bond	-11.3785
nee	-11.3787
▁bat	-11.3788
ware	-11.379
yya	-11.3791
▁bullet	-11.3793
▁Chhattisgarh	-11.3796
▁luxury	-11.3796
▁pregnant	-11.3796
▁resound	-11.3796
▁barrier	-11.3796
▁pressure	-11.3797
▁Sil	-11.3797
▁drug	-11.3797
ulu	-11.3798
▁sustain	-11.3801
▁transformed	-11.3806
▁drain	-11.3807
▁Gun	-11.3808
hl	-11.3809
▁preach	-11.3809
▁royalty	-11.3809
▁teaches	-11.3813
▁persuaded	-11.3813
▁planets	-11.3814
ieve	-11.3817
jah	-11.3819
shta	-11.3821
▁addresses	-11.3825
▁agitation	-11.3828
▁junction	-11.3828
▁twig	-11.3828
▁alter	-11.3833
▁undertaking	-11.3834
ALL	-11.3835
▁restraint	-11.3837
▁Nyâya	-11.3837
▁echo	-11.3839
▁oppressed	-11.3845
mam	-11.3848
▁abstract	-11.3855
▁Gama	-11.3859
laya	-11.3861
▁pocket	-11.3861
▁Beyond	-11.3861
▁charitable	-11.3861
▁pradhâna	-11.3861
▁rejoicing	-11.3861
▁yonder	-11.3861
▁Behar	-11.3863
▁Monday	-11.3864
▁rendering	-11.3865
endra	-11.3869
nine	-11.3869
dev	-11.3869
[1]	-11.3871
▁invoked	-11.3872
▁National	-11.3878
▁varying	-11.388
▁reasoning	-11.3882
▁Journal	-11.3884
▁Pā	-11.3886
▁substances	-11.3886
vit	-11.3886
asse	-11.3887
▁deem	-11.3892
▁Srinjaya	-11.3894
▁edifice	-11.3894
▁Mughal	-11.3894
▁thrice	-11.3894
▁foster	-11.3895
▁correspondence	-11.3896
▁cherished	-11.3896
▁mantras	-11.3897
▁cheerless	-11.39
▁ratio	-11.39
him	-11.3903
▁resided	-11.3905
▁gem	-11.3906
Jerdon	-11.3907
▁rescued	-11.3909
hira	-11.3916
▁raw	-11.3923
▁degraded	-11.3927
▁eclipse	-11.3927
▁thrill	-11.3927
▁impatient	-11.3927
▁whip	-11.3927
▁rubbed	-11.3928
▁Cur	-11.3928
lved	-11.3929
▁Daityas	-11.3932
▁alien	-11.3934
▁ward	-11.3935
oh	-11.3935
▁Hind	-11.3936
▁sandy	-11.3937
▁slopes	-11.3938
ráv	-11.3942
OW	-11.3943
▁bonds	-11.3943
▁2:	-11.3944
▁nigh	-11.3949
ANT	-11.395
may	-11.3951
dai	-11.3952
▁fable	-11.3952
▁rub	-11.3954
▁Kho	-11.3954
▁totem	-11.3959
▁hasten	-11.3959
▁repress	-11.3967
▁visiting	-11.3976
Ti	-11.3979
bank	-11.398
▁cultivator	-11.3982
▁victor	-11.3983
bá	-11.3984
:--"	-11.3984
▁healthy	-11.3992
▁Jaisalmer	-11.3994
▁dimensions	-11.3994
▁tranquil	-11.3994
▁admission	-11.3994
mani	-11.3997
▁Asoka	-11.3998
——	-11.3999
▁Hindustani	-11.3999
▁betray	-11.4001
▁XIII	-11.4002
▁justified	-11.4004
▁laden	-11.4005
▁haunt	-11.4005
▁lime	-11.4005
▁Non	-11.4006
horn	-11.4008
▁rum	-11.4009
▁floating	-11.4012
wash	-11.4014
TION	-11.4019
▁abandoning	-11.4019
▁compel	-11.4026
▁Universe	-11.4027
▁adequate	-11.4027
▁mangled	-11.4027
▁Chit	-11.4028
▁pandal	-11.4028
▁daybreak	-11.403
stead	-11.4032
▁immortality	-11.4032
▁historians	-11.4033
▁hind	-11.4037
▁wedded	-11.4039
▁Santa	-11.4043
▁crows	-11.4053
▁baskets	-11.4058
▁trunks	-11.4059
▁Mongol	-11.4061
▁medical	-11.4061
▁Valabhi	-11.4061
▁pension	-11.4061
▁Gujar	-11.4063
▁1000	-11.4063
▁disputes	-11.4064
were	-11.4064
▁accessible	-11.4064
▁confirm	-11.4065
▁Jal	-11.4067
▁reject	-11.4073
▁shops	-11.4082
▁Anne	-11.4083
▁Koh	-11.4084
▁garment	-11.4085
▁pitched	-11.4086
▁MO	-11.4092
ṅ	-11.4095
▁compliment	-11.4095
▁shawl	-11.4095
▁laying	-11.4095
▁Madiga	-11.4095
▁personally	-11.4095
▁greed	-11.4095
Pra	-11.4098
vice	-11.4103
▁scholars	-11.4103
here	-11.4108
▁deeper	-11.4109
▁drowned	-11.411
▁exclusively	-11.4112
▁Mang	-11.4112
▁Tá	-11.4113
▁hare	-11.4113
▁supporting	-11.4113
mish	-11.4114
▁Brahmanical	-11.4115
▁washing	-11.4116
▁Agent	-11.4116
▁altered	-11.4123
▁unfortunately	-11.4128
▁Fish	-11.4128
▁Kalidasa	-11.4128
▁gesture	-11.4128
▁lotuses	-11.4129
▁bearers	-11.4131
fish	-11.4131
wā	-11.4134
.'--	-11.4135
▁Râm	-11.4135
zo	-11.4137
▁147	-11.4137
dol	-11.4138
▁associate	-11.4139
āl	-11.4141
▁Crown	-11.4148
▁borders	-11.4149
▁softly	-11.4152
▁canoe	-11.4154
▁Peshawar	-11.4162
▁Portugal	-11.4162
▁delicious	-11.4162
▁enquiry	-11.4162
▁struggling	-11.4162
▁treacherous	-11.4162
▁ugly	-11.4162
▁naught	-11.4163
▁consistent	-11.4164
▁Reserve	-11.4165
▁childhood	-11.417
▁ninety	-11.417
▁cage	-11.4171
▁Officer	-11.4172
▁professional	-11.4173
▁relieve	-11.4173
▁realise	-11.4178
▁profess	-11.4179
▁products	-11.4181
ERS	-11.4181
2|	-11.4182
▁creep	-11.4194
▁data	-11.4195
▁Tanjore	-11.4196
▁Seneca	-11.4196
▁reflect	-11.4196
▁funds	-11.4197
▁bondage	-11.4197
▁consecrated	-11.42
▁enclosed	-11.4202
asya	-11.4212
▁Francis	-11.4228
▁climbed	-11.4229
▁Suddenly	-11.423
▁antelope	-11.423
▁astrologer	-11.423
▁cluster	-11.423
▁squadron	-11.423
▁maximum	-11.4231
▁Plan	-11.4232
▁mood	-11.4234
fit	-11.4235
pad	-11.4235
▁Durga	-11.4236
▁flatter	-11.4236
NCE	-11.4237
▁poems	-11.4241
▁bowl	-11.4242
have	-11.4243
▁shaken	-11.4244
▁Lalla	-11.4247
▁obvious	-11.4247
▁Die	-11.4248
▁arches	-11.425
▁Paper	-11.4251
Or	-11.4261
▁Maru	-11.4264
▁Gáikwár	-11.4265
▁Railway	-11.4265
▁removal	-11.4265
using	-11.4265
▁Udaipur	-11.4266
▁Gil	-11.4268
▁Bundi	-11.4268
▁unreal	-11.4269
Ye	-11.427
▁recruit	-11.4272
▁hermits	-11.4274
já	-11.4276
▁omens	-11.4279
cane	-11.4282
▁scar	-11.4284
CO	-11.4286
▁stained	-11.4287
akka	-11.4287
▁Amongst	-11.4289
eries	-11.4289
▁Dal	-11.4289
▁idols	-11.429
▁Surja	-11.4294
▁counsels	-11.4297
▁Barclay	-11.4299
▁Vizagapatam	-11.4299
▁incomplete	-11.4299
▁telegram	-11.4299
▁shift	-11.4299
▁criticism	-11.43
▁shallow	-11.4302
▁Nana	-11.4302
▁potent	-11.4306
▁procure	-11.431
▁witch	-11.4311
▁mint	-11.4311
RY	-11.4314
▁totally	-11.4319
▁overthrow	-11.4324
covered	-11.4325
▁afflict	-11.433
▁Jayadratha	-11.4333
▁Please	-11.4333
▁lieutenant	-11.4333
▁virgin	-11.4333
▁deputy	-11.4333
▁harmony	-11.4334
▁Nepal	-11.4335
▁Chetti	-11.4335
▁mourn	-11.4336
▁angel	-11.4337
mbled	-11.434
▁comment	-11.4344
▁pierce	-11.4345
loka	-11.4345
▁Pancha	-11.4345
▁resides	-11.4347
servant	-11.4348
piece	-11.4348
UD	-11.4353
▁Mel	-11.4362
▁richly	-11.4364
▁strongest	-11.4365
▁330	-11.4365
mut	-11.4366
▁egg	-11.4367
▁filling	-11.4367
▁Language	-11.4368
▁paternal	-11.4368
▁repetition	-11.4368
▁sunshine	-11.4368
▁Sikhandin	-11.4368
▁phase	-11.4368
▁falsehood	-11.437
▁devoured	-11.4371
▁germ	-11.4372
▁Would	-11.4373
▁temptation	-11.4375
▁Wat	-11.4375
▁Bir	-11.4376
▁indicates	-11.4379
âla	-11.438
▁undertaken	-11.438
▁Hindi	-11.4383
▁kindred	-11.4384
▁exclusive	-11.4385
▁herbs	-11.4386
▁Minor	-11.4389
▁Meru	-11.4392
▁Amba	-11.4393
▁Force	-11.4396
▁Muk	-11.4399
▁pupil	-11.44
▁immobile	-11.4403
▁impulse	-11.4403
▁pulse	-11.4403
▁mobile	-11.4403
▁rumour	-11.4404
▁stiff	-11.4404
▁brook	-11.4404
▁Moro	-11.4406
▁152	-11.4408
▁correctly	-11.4408
▁Burmah	-11.4409
krit	-11.441
▁mare	-11.4412
▁separately	-11.4415
▁wield	-11.4417
▁influenced	-11.442
▁fearless	-11.4423
▁Afghans	-11.4428
sads	-11.4432
▁flowed	-11.4437
▁diadem	-11.4438
▁Washington	-11.4438
▁citadel	-11.4438
▁conversion	-11.4438
▁spacious	-11.4438
▁supernatural	-11.4438
▁transgress	-11.4438
▁Cambay	-11.4438
▁Nagendra	-11.4438
▁hunters	-11.4438
▁crept	-11.4438
▁barren	-11.4439
▁seizing	-11.4439
▁192	-11.4439
▁mould	-11.4439
▁musicians	-11.444
▁1890	-11.4443
haria	-11.4445
▁nuts	-11.4447
▁Directors	-11.4459
▁pressing	-11.446
▁crush	-11.4462
▁acquires	-11.4467
▁Say	-11.4468
▁Nilakantha	-11.4473
▁allegiance	-11.4473
▁skirt	-11.4473
▁squirrel	-11.4473
▁Danavas	-11.4473
▁Crooke	-11.4473
▁allusion	-11.4474
▁referring	-11.4475
▁construct	-11.4478
▁doorway	-11.4478
▁Bow	-11.4479
▁subcastes	-11.448
cast	-11.4481
▁conquering	-11.4486
burn	-11.4489
▁forsake	-11.449
script	-11.449
▁ascending	-11.4493
rried	-11.4498
ē	-11.4508
ḍ	-11.4508
▁Settlement	-11.4508
▁foliage	-11.4508
▁Shāh	-11.4508
▁enchant	-11.4508
▁invaders	-11.4509
▁Sā	-11.4511
▁confirmation	-11.4511
ifying	-11.4517
▁Tom	-11.4518
▁manage	-11.4519
▁ox	-11.4519
▁prevail	-11.4519
▁barracks	-11.4525
▁Charan	-11.4526
Sha	-11.4529
pá	-11.4529
▁Vala	-11.4529
▁upright	-11.453
▁Ben	-11.4531
▁ter	-11.4536
▁mate	-11.454
▁confident	-11.4542
▁erroneous	-11.4543
▁joining	-11.4545
▁bite	-11.4546
▁1877	-11.4546
oba	-11.4546
▁selling	-11.4547
▁jewelled	-11.4547
▁agony	-11.4547
▁Tir	-11.4548
▁fig	-11.4549
▁Phœnician	-11.455
▁rewarded	-11.455
▁triple	-11.4552
▁1860	-11.4553
▁XX	-11.4555
▁lib	-11.4557
▁Unto	-11.4558
▁joyous	-11.4558
control	-11.4558
Mr	-11.4568
▁gladly	-11.4568
▁weighed	-11.4575
▁Catholic	-11.4578
▁Lakshmi	-11.4578
▁acquiring	-11.4578
▁contemporary	-11.4578
▁passenger	-11.4578
▁signifies	-11.4578
▁yard	-11.4579
▁Nizam	-11.4579
▁Prof	-11.4579
▁Subhadra	-11.4579
▁Mirzapur	-11.4581
▁traitor	-11.4583
▁strengthened	-11.4584
▁forgiveness	-11.4584
too	-11.4584
flow	-11.4584
▁troopers	-11.4584
▁Nanda	-11.4586
▁deceived	-11.4592
──────────────	-11.4593
▁knocked	-11.4596
▁drag	-11.4596
▁uphold	-11.4597
▁eleventh	-11.4599
half	-11.46
yah	-11.46
▁Nu	-11.4604
eous	-11.4607
▁1856	-11.4609
▁Gopal	-11.4612
▁Yukteswar	-11.4614
▁humility	-11.4614
▁taluk	-11.4614
▁prior	-11.4614
real	-11.4616
▁distinctive	-11.4619
▁latest	-11.4621
▁bards	-11.4628
─	-11.4628
thus	-11.4629
▁reduce	-11.463
orum	-11.463
▁prose	-11.4637
▁income	-11.464
▁divers	-11.4642
▁reinforcements	-11.4642
▁dire	-11.4642
Tell	-11.4643
▁Munda	-11.4643
▁forever	-11.4645
▁discharged	-11.4646
▁artificial	-11.4649
▁believing	-11.4649
▁enthusiasm	-11.4649
▁mirror	-11.4649
▁Garuda	-11.4649
▁Arrian	-11.4649
town	-11.465
▁340	-11.4656
existence	-11.4665
ida	-11.4668
▁Wood	-11.4669
▁Pon	-11.467
▁adding	-11.4672
▁illustrated	-11.4672
ERN	-11.4685
▁crimson	-11.4685
▁qualified	-11.4685
▁spectacle	-11.4685
▁tattoo	-11.4685
▁Brown	-11.4686
▁Ancient	-11.4691
tā	-11.4692
taking	-11.4694
▁meditate	-11.4697
▁lightly	-11.4702
mir	-11.471
▁stole	-11.4713
▁hostilities	-11.4721
▁practising	-11.4721
▁stupid	-11.4721
▁Cross	-11.4721
▁rampart	-11.4721
▁shaking	-11.4722
▁sunrise	-11.4723
▁Mukhi	-11.4723
▁Vellalas	-11.4726
▁Plate	-11.4726
hita	-11.4728
▁rob	-11.4732
▁gloomy	-11.4737
▁linked	-11.4739
▁AT	-11.4745
▁yielded	-11.4746
▁belly	-11.4747
▁Mak	-11.4748
▁240	-11.4752
▁silently	-11.4755
back	-11.4755
ṡ	-11.4757
▁elegant	-11.4757
▁remembrance	-11.4757
▁mortar	-11.4757
▁thumb	-11.4757
▁Pancala	-11.4757
▁Vasava	-11.4757
▁replaced	-11.4758
▁synonymous	-11.4759
▁oxen	-11.4759
▁Foot	-11.4761
▁depended	-11.4761
▁residents	-11.4762
▁beggar	-11.4763
AST	-11.4765
▁mourner	-11.4772
▁descending	-11.4772
Behold	-11.4773
▁Nagas	-11.4774
▁Total	-11.4775
▁Patna	-11.4777
▁renowned	-11.4779
▁apprehended	-11.478
▁depths	-11.4785
TS	-11.4788
anus	-11.479
hang	-11.4791
▁Brigade	-11.4793
▁tidings	-11.4793
▁Shalya	-11.4793
▁describing	-11.4794
▁Phœnicians	-11.4794
EY	-11.4797
▁allowance	-11.4799
▁briefly	-11.4803
loch	-11.4805
▁1500	-11.4807
▁cum	-11.4813
▁Puru	-11.4815
tana	-11.4816
▁span	-11.4817
utta	-11.4818
agh	-11.4819
▁Nā	-11.482
▁Pahar	-11.482
▁promptly	-11.4821
▁termed	-11.4825
▁Revenue	-11.4829
▁Thursday	-11.4829
▁infidel	-11.4829
▁uncommon	-11.4829
▁awoke	-11.4829
▁composition	-11.4829
▁purport	-11.483
mall	-11.4833
▁sack	-11.484
made	-11.4842
▁illustrate	-11.4842
▁inquire	-11.4843
▁surround	-11.4844
tá	-11.4846
▁imperfect	-11.4848
▁labourers	-11.4848
▁Out	-11.4852
atic	-11.4853
▁guilt	-11.4855
▁sweeper	-11.4855
▁scarce	-11.4856
▁lash	-11.4865
▁Mulvaney	-11.4866
▁monasteries	-11.4866
▁obedient	-11.4866
▁Deputy	-11.4866
▁nectar	-11.4866
▁Latham	-11.4866
▁robbed	-11.4866
▁subsistence	-11.4867
gul	-11.4868
▁Ravana	-11.4868
▁affectionate	-11.4872
kum	-11.4873
dden	-11.4875
▁bushes	-11.4875
▁subdue	-11.4884
▁invade	-11.4884
▁partial	-11.4885
kee	-11.4887
▁Kota	-11.4887
chari	-11.4899
plate	-11.49
ς	-11.4902
▁frank	-11.4902
▁securing	-11.4902
▁Anderson	-11.4902
▁acres	-11.4903
▁Sû	-11.4905
▁Swami	-11.4905
▁grind	-11.4911
▁lent	-11.4911
▁Creeks	-11.4912
▁fence	-11.4913
▁plank	-11.4926
▁Mara	-11.4927
▁surrendered	-11.4927
▁quo	-11.4928
Enter	-11.4931
ρ	-11.4939
▁Gyantse	-11.4939
▁emancipation	-11.4939
▁impetuous	-11.4939
▁nostril	-11.4939
_].--	-11.4939
▁hamlet	-11.4939
▁Baroda	-11.494
▁Massachusetts	-11.4943
▁1907	-11.4947
▁owl	-11.4948
▁(“	-11.4951
▁fairy	-11.4953
▁Irish	-11.4957
▁roaring	-11.4957
ILL	-11.4957
▁Nath	-11.4957
▁rout	-11.4958
rick	-11.4965
▁Cle	-11.4966
▁boldly	-11.4966
▁Dev	-11.4967
▁conform	-11.4969
▁suggests	-11.4969
▁trembled	-11.4971
▁torrents	-11.4972
▁Bareilly	-11.4975
▁extremity	-11.4975
▁unworthy	-11.4975
▁cabin	-11.4976
▁stature	-11.4976
.~--	-11.4978
▁pink	-11.4988
──────	-11.4994
▁restrain	-11.5001
▁arrested	-11.5009
▁Cal	-11.5011
▁Janardana	-11.5012
▁Possessed	-11.5012
▁coffee	-11.5012
▁traffic	-11.5012
▁liquid	-11.5012
▁repel	-11.5013
▁Mind	-11.5018
▁clarified	-11.5019
▁entertainment	-11.5023
▁Cave	-11.5025
▁Unless	-11.5026
ensis	-11.5027
▁rot	-11.5029
▁Jim	-11.5032
nai	-11.5036
▁occupying	-11.5038
▁Oriya	-11.5041
▁tooth	-11.5046
▁Trade	-11.5047
▁Cf	-11.5048
▁binding	-11.5049
▁circum	-11.5049
▁injustice	-11.5049
▁refrain	-11.5049
▁polite	-11.5049
▁cavern	-11.5049
▁costume	-11.5049
▁Râjâ	-11.505
▁bidding	-11.505
▁Rule	-11.505
▁mansab	-11.5051
▁pupils	-11.5053
▁ventured	-11.5053
▁MSS	-11.5055
ature	-11.5056
Hearing	-11.5057
▁peer	-11.5061
ISH	-11.5065
ARD	-11.5073
▁cremation	-11.5087
▁intermediate	-11.5087
▁sanctity	-11.5087
▁venerable	-11.5087
▁satrap	-11.5087
▁merry	-11.5087
▁Mahadeo	-11.5087
▁boundaries	-11.5089
face	-11.509
▁Khara	-11.5091
▁600	-11.5093
▁Rock	-11.5098
shot	-11.5099
▁Arm	-11.51
▁XV	-11.51
▁Victoria	-11.5101
▁apt	-11.5108
▁HO	-11.5112
▁Tar	-11.5115
roll	-11.5116
▁covet	-11.5123
▁Muzaffar	-11.5124
▁ancestral	-11.5124
▁tortoise	-11.5124
▁shrill	-11.5124
▁Jaga	-11.5124
▁Silver	-11.5125
▁XIV	-11.5126
▁vivid	-11.5127
▁wool	-11.5129
▁pretended	-11.5133
▁headquarters	-11.5133
▁folded	-11.5133
▁searched	-11.5136
▁hesitate	-11.5138
▁dreaded	-11.514
▁earned	-11.5141
Gu	-11.5142
▁Hawk	-11.5144
▁arrowy	-11.5145
▁subjected	-11.5148
▁lapse	-11.5149
▁unclean	-11.5151
note	-11.5157
▁Currency	-11.5161
▁Shortly	-11.5161
▁officiate	-11.5161
▁colonists	-11.5162
▁purification	-11.5162
▁swallowed	-11.5163
▁primary	-11.5163
▁unmarried	-11.5164
▁novel	-11.5165
▁Jack	-11.517
▁weavers	-11.5171
haka	-11.5173
pox	-11.5178
found	-11.5179
▁bullets	-11.518
▁spectators	-11.518
uf	-11.5183
▁Were	-11.5188
very	-11.5188
▁Sindh	-11.5189
▁personage	-11.519
▁Kichaka	-11.5199
▁compressed	-11.5199
▁resolute	-11.5199
▁Destroyer	-11.5199
▁Vritra	-11.5199
▁applies	-11.5199
▁sexual	-11.52
▁Holkar	-11.52
▁welcomed	-11.52
▁Brahmun	-11.5201
▁rightly	-11.5202
▁moonlight	-11.5203
▁picket	-11.5204
▁classical	-11.5207
page	-11.521
▁Subcaste	-11.521
▁END	-11.521
▁Because	-11.5211
▁favoured	-11.5216
▁clasped	-11.522
▁enjoined	-11.522
▁recommended	-11.5221
▁Hart	-11.5227
▁Mahâ	-11.5227
▁blowing	-11.5229
▁recollect	-11.523
▁oblations	-11.523
▁badge	-11.523
liest	-11.5231
.”[	-11.5236
▁Put	-11.5237
▁admirable	-11.5237
▁conscience	-11.5237
▁epithet	-11.5237
▁terrified	-11.5237
▁unpleasant	-11.5237
▁sensation	-11.5237
bho	-11.5237
▁blast	-11.5237
▁impress	-11.5239
▁deserving	-11.5239
▁Poona	-11.5239
▁strewn	-11.5241
▁spies	-11.5244
▁affliction	-11.5248
▁EX	-11.5252
▁designed	-11.5252
uj	-11.5253
▁plight	-11.5257
▁Saw	-11.5258
istan	-11.526
▁Tha	-11.5261
yaka	-11.5262
▁adventures	-11.5263
▁bending	-11.5265
▁1900	-11.5268
▁obstruct	-11.5268
▁Satan	-11.5268
▁shines	-11.5272
Synonym	-11.5274
▁Cashmere	-11.5274
▁Sraddha	-11.5274
▁Vindhya	-11.5274
▁sweetmeats	-11.5274
▁Himself	-11.5275
▁treatise	-11.5276
▁garb	-11.5276
▁yielding	-11.5279
Some	-11.5281
▁priv	-11.5282
▁handle	-11.5283
▁styled	-11.5284
▁dislike	-11.5285
▁gallop	-11.5286
▁enquired	-11.5291
▁promoted	-11.5292
ridge	-11.5295
▁Vira	-11.5302
▁origination	-11.5303
▁stately	-11.5304
▁Thibet	-11.5313
▁terrific	-11.5313
▁scanty	-11.5313
▁adherents	-11.5313
▁manifold	-11.5313
▁Formerly	-11.5313
▁unseen	-11.5313
▁indirectly	-11.5313
▁clo	-11.5313
▁motionless	-11.5319
▁mess	-11.532
▁sculptures	-11.5321
▁suited	-11.5321
▁Wil	-11.5326
▁product	-11.5326
▁magician	-11.5327
▁Hal	-11.5329
intelligent	-11.533
dhara	-11.5331
sentient	-11.5333
▁winged	-11.5334
▁behave	-11.5334
▁plea	-11.534
▁Lib	-11.5346
▁excellence	-11.5351
▁Kayasth	-11.5351
▁Surely	-11.5351
▁compact	-11.5352
▁Yo	-11.5354
pâ	-11.5357
▁Brahm	-11.5358
pond	-11.5358
▁solution	-11.5359
▁didn	-11.5365
ior	-11.5365
▁resolve	-11.5365
▁Gaur	-11.5366
▁Letter	-11.5369
▁touches	-11.5371
▁assent	-11.5372
▁sixteenth	-11.5373
▁gifted	-11.5382
▁beggars	-11.5384
▁Hast	-11.5385
▁aboriginal	-11.5389
▁banished	-11.5389
▁Risley	-11.5389
▁lances	-11.5398
▁propose	-11.5405
▁220	-11.5406
▁Kaurava	-11.5409
▁paste	-11.5416
▁thighs	-11.5417
▁monk	-11.542
▁seventeen	-11.5421
▁inspect	-11.5424
ecked	-11.5425
▁Malwa	-11.5426
▁Mahasaya	-11.5427
▁Málwa	-11.5427
▁Vrihaspati	-11.5427
▁adjacent	-11.5427
▁captivity	-11.5427
▁manuscript	-11.5427
▁requisite	-11.5427
▁Hiawatha	-11.5427
▁razor	-11.5427
▁recitation	-11.5427
▁Dehli	-11.5427
▁beef	-11.5429
▁Return	-11.543
quet	-11.5431
▁startled	-11.5434
▁canoes	-11.5437
▁enveloped	-11.5438
hear	-11.544
▁Yogin	-11.5445
Shakuntala	-11.5446
restraint	-11.5446
▁modest	-11.5447
rája	-11.545
▁somehow	-11.5457
▁Earl	-11.5461
▁maha	-11.5462
atus	-11.5463
▁diameter	-11.5466
▁Jesuit	-11.5466
▁decoration	-11.5466
▁brutal	-11.5466
▁Sitting	-11.5466
▁Towards	-11.5467
eau	-11.5468
▁Kurumba	-11.5469
▁Down	-11.5475
▁Mina	-11.5477
tz	-11.5478
hára	-11.5479
bell	-11.548
handed	-11.5485
▁twisted	-11.5485
▁pea	-11.5486
▁permanently	-11.5495
▁Mahā	-11.5502
▁stretching	-11.5504
▁Sleeman	-11.5505
▁divested	-11.5505
▁efficient	-11.5505
▁Yakshas	-11.5505
▁suburb	-11.5505
▁bribe	-11.5506
▁Yaj	-11.5507
▁tropical	-11.5508
▁winning	-11.5508
▁warrant	-11.5508
▁foam	-11.551
pai	-11.5511
▁pitch	-11.5514
▁Second	-11.5514
▁abounding	-11.5516
▁pony	-11.5516
ante	-11.5516
IX	-11.5517
▁leagues	-11.5518
▁201	-11.5523
▁consequent	-11.5526
▁reckoned	-11.5527
▁195	-11.5533
▁senseless	-11.5537
worth	-11.5538
Ko	-11.554
▁respecting	-11.5541
▁arrayed	-11.5542
▁Park	-11.5543
▁1906	-11.5543
▁WORK	-11.5544
▁varieties	-11.5544
▁Tyre	-11.5544
▁Canada	-11.5545
▁curds	-11.5546
▁barb	-11.555
▁acceptance	-11.555
▁factor	-11.5555
▁periodical	-11.5556
▁northwest	-11.5558
SON	-11.5561
▁Vâ	-11.5564
▁spin	-11.5573
▁Mutt	-11.5573
▁wick	-11.5574
▁203	-11.5579
$1	-11.5581
▁facility	-11.5583
▁uproar	-11.5583
▁grape	-11.5583
▁Everything	-11.5583
▁disappointment	-11.5584
▁ladder	-11.5585
▁Instead	-11.5597
▁smeared	-11.5598
▁vent	-11.5602
those	-11.5602
[2]	-11.5604
▁detached	-11.5605
IO	-11.5606
▁Call	-11.5607
▁1].	-11.5609
rest	-11.5609
leaf	-11.561
bhû	-11.5612
▁marches	-11.5617
▁pavilion	-11.5622
▁prevalent	-11.5622
▁Brahmá	-11.5623
▁Darius	-11.5623
appa	-11.5624
▁flute	-11.5627
chee	-11.563
▁col	-11.5631
course	-11.5636
▁glittering	-11.5638
Brahma	-11.5639
▁Bráhmans	-11.5645
▁Cat	-11.5649
▁plainly	-11.5649
drum	-11.5653
▁convict	-11.5655
▁Panchala	-11.5655
▁DIS	-11.5655
▁Bharadwaja	-11.5661
▁Special	-11.5661
▁contemplation	-11.5661
▁elevated	-11.5661
▁memorial	-11.5661
▁anoint	-11.5662
▁discern	-11.5662
bert	-11.5665
▁Já	-11.5666
▁awaiting	-11.5666
▁wont	-11.5666
.)]	-11.5668
▁Mill	-11.5668
▁duck	-11.5669
does	-11.5672
▁Salya	-11.5677
birth	-11.5677
▁inspire	-11.5678
black	-11.5681
Great	-11.5681
▁upward	-11.5683
▁rejoiced	-11.5684
▁noblest	-11.5693
▁Than	-11.5697
gotten	-11.57
▁193	-11.5701
▁Righteousness	-11.5701
▁Sutlej	-11.5701
▁skirmish	-11.5701
▁territorial	-11.5701
▁unlucky	-11.5701
▁unnecessary	-11.5701
▁INDE	-11.5701
▁Gandhari	-11.5701
▁imitate	-11.5701
▁Bhil	-11.5702
Bi	-11.5703
▁deducti	-11.5704
▁normal	-11.571
▁Rája	-11.571
▁lustre	-11.5712
▁ire	-11.572
patri	-11.572
▁gradual	-11.5723
vâda	-11.5723
▁league	-11.5727
▁vegetable	-11.5727
▁slope	-11.5727
▁Nay	-11.5737
chand	-11.5738
▁Jubbulpore	-11.5741
▁analogous	-11.5741
▁extension	-11.5741
▁Shastree	-11.5741
▁lingam	-11.5741
▁alluded	-11.5743
▁Title	-11.5743
▁Parvati	-11.5745
simha	-11.5746
▁Star	-11.5753
▁goodness	-11.5753
bbing	-11.5755
▁witnesses	-11.5761
▁oh	-11.5762
▁leaped	-11.5762
▁repeating	-11.5769
khi	-11.5771
āla	-11.5771
nunciation	-11.5777
4|	-11.5778
▁canto	-11.5779
ã	-11.578
▁Aurangzeb	-11.578
▁qualification	-11.578
gâ	-11.5781
▁detain	-11.5781
▁Balija	-11.5781
▁omitted	-11.5782
▁Japan	-11.5783
▁matted	-11.5786
▁approaches	-11.5786
West	-11.5789
▁extinguished	-11.5792
▁frog	-11.5794
▁admire	-11.5797
▁fearlessly	-11.5801
▁severed	-11.5801
ûn	-11.5804
▁thereon	-11.5804
▁offended	-11.5805
▁hated	-11.5814
▁Sini	-11.5814
▁sustained	-11.5814
▁Crow	-11.5817
▁FROM	-11.582
▁Tecumseh	-11.582
▁dignified	-11.582
▁typical	-11.582
▁Treaty	-11.582
▁ponies	-11.582
▁barley	-11.5822
▁Turkish	-11.5823
▁goldsmith	-11.5823
maid	-11.5824
sattva	-11.5825
▁reminded	-11.5829
▁jail	-11.583
▁excite	-11.5835
▁nut	-11.5835
▁everyone	-11.5835
▁Later	-11.5841
▁Shakuntala	-11.5842
▁Name	-11.5845
▁sepoy	-11.585
Pan	-11.5855
race	-11.5856
Take	-11.586
▁Magadha	-11.5861
▁Public	-11.5861
▁Stuart	-11.5861
▁contingent	-11.5861
▁magnificence	-11.5861
▁pistol	-11.5861
▁hesitation	-11.5861
▁Frank	-11.5861
▁Hanuman	-11.5861
▁nourish	-11.5861
gupta	-11.5861
▁crane	-11.5861
▁survived	-11.5861
▁closing	-11.5861
▁urgent	-11.5861
▁sap	-11.5862
▁conference	-11.5862
▁2,000	-11.5866
▁Kingdom	-11.5866
▁feudal	-11.5869
▁xl	-11.587
▁forthwith	-11.587
▁Inca	-11.5871
bon	-11.5872
▁Rich	-11.5872
▁impart	-11.5876
▁Brant	-11.5877
▁rejoice	-11.5877
quin	-11.5882
▁tenant	-11.5883
▁Ray	-11.589
▁Ball	-11.5891
▁princely	-11.5898
▁visitor	-11.5898
▁Erlton	-11.5901
▁censure	-11.5901
▁imprisoned	-11.5901
▁negative	-11.5901
PRESS	-11.5901
▁vault	-11.5901
▁attendance	-11.5905
OUR	-11.591
▁à	-11.5912
▁scenery	-11.5912
▁commissioner	-11.5917
▁politics	-11.5922
▁202	-11.5925
▁RO	-11.5927
▁inquired	-11.5927
▁attacking	-11.5928
▁Arabia	-11.5932
▁Herodotus	-11.5941
▁Maráthás	-11.5941
▁syllable	-11.5941
▁neighbour	-11.5942
▁sandstone	-11.5943
▁stockade	-11.5943
zen	-11.5944
boat	-11.5947
▁pomp	-11.5947
roach	-11.5948
▁disappointed	-11.5948
ça	-11.5952
▁ankle	-11.5955
▁bounded	-11.5958
▁swelling	-11.5963
nî	-11.5964
▁complained	-11.5976
▁valued	-11.5977
pana	-11.5979
▁devote	-11.598
▁188	-11.598
▁diamonds	-11.5982
▁earnestly	-11.5982
▁Aswatthaman	-11.5982
▁Paradise	-11.5982
▁imprisonment	-11.5982
▁Kapila	-11.5982
▁Khyber	-11.5982
▁Above	-11.5982
▁claws	-11.5982
▁disclose	-11.5983
▁hyper	-11.5984
making	-11.5984
▁lane	-11.5985
▁Scott	-11.5986
Hear	-11.5989
▁Babylonian	-11.5992
▁Hole	-11.5993
▁assail	-11.5996
ghat	-11.5996
âh	-11.6
▁mix	-11.6001
▁partially	-11.6002
▁economic	-11.6002
▁dismiss	-11.6002
pounder	-11.6003
bagh	-11.6007
▁indication	-11.6015
oil	-11.6022
▁Apollo	-11.6023
▁Ghatotkacha	-11.6023
▁Michael	-11.6023
▁haughty	-11.6023
▁restoration	-11.6023
▁canopy	-11.6023
▁Dakhan	-11.6023
▁Green	-11.6024
HAN	-11.6025
▁machinery	-11.6026
▁ME	-11.6026
▁succeeding	-11.6027
▁controlled	-11.6033
▁Kari	-11.6039
pani	-11.604
▁renounce	-11.604
▁Boy	-11.6043
▁center	-11.6043
spread	-11.6044
▁LXX	-11.6048
▁trip	-11.605
▁butcher	-11.6052
▁218	-11.6054
▁subjection	-11.6056
▁Bird	-11.6056
chha	-11.6061
▁closer	-11.6061
▁Vaidehi	-11.6064
▁Uttara	-11.6064
▁caution	-11.6064
▁inclination	-11.6064
▁precipice	-11.6064
▁regulating	-11.6064
▁refusal	-11.6064
▁gazing	-11.6064
▁Sattwa	-11.6064
▁enlist	-11.6064
▁interference	-11.6065
ikâ	-11.6066
▁fulfilment	-11.6067
▁recourse	-11.6068
rise	-11.6068
▁guise	-11.607
▁appoint	-11.6072
▁resorted	-11.6075
▁trod	-11.6075
omp	-11.6077
▁bracelets	-11.608
▁Nir	-11.6082
▁archer	-11.6084
public	-11.6085
▁lock	-11.6096
▁210	-11.6102
▁plague	-11.6105
▁prudent	-11.6105
▁puissance	-11.6105
▁collector	-11.6106
▁Bhils	-11.6106
▁network	-11.6107
▁discus	-11.6107
▁unequal	-11.6107
▁dispersed	-11.6114
riving	-11.6117
▁Presently	-11.6118
vî	-11.6119
▁thirteenth	-11.6122
▁conceive	-11.6123
▁improved	-11.6126
▁fruitless	-11.6128
▁churches	-11.6128
lā	-11.6128
▁1894	-11.6144
▁cessation	-11.6146
▁elapsed	-11.6146
▁review	-11.6146
▁unprotected	-11.6146
▁inasmuch	-11.6146
▁Coast	-11.6147
▁artisan	-11.6147
▁console	-11.6147
▁Mont	-11.6148
▁subscribe	-11.6149
▁Mark	-11.6149
▁solely	-11.6149
▁gaining	-11.6149
▁XXI	-11.615
ré	-11.6151
▁catching	-11.6153
▁undergone	-11.6154
6|	-11.6156
▁adventure	-11.616
▁esteem	-11.616
ddle	-11.6161
▁Gul	-11.6163
▁calculate	-11.6164
Vaisampayana	-11.6167
▁habitation	-11.617
▁extra	-11.6179
cult	-11.6179
inda	-11.6185
plicat	-11.6186
▁adventurer	-11.6187
▁glimpse	-11.6188
▁confessed	-11.6188
▁musketry	-11.6192
▁Broach	-11.6192
▁1878	-11.6192
▁discontinue	-11.6196
▁stead	-11.6202
▁prâ	-11.6203
lang	-11.6204
lice	-11.6208
▁dispose	-11.6208
kā	-11.6213
▁Arabian	-11.6213
▁10,000	-11.6218
▁Kansa	-11.6219
▁manhood	-11.6228
NI	-11.6229
▁fibre	-11.6229
▁chat	-11.623
▁Muslim	-11.623
▁quaint	-11.6231
pari	-11.6232
▁sharing	-11.6232
▁1892	-11.6232
▁quitted	-11.6233
Nay	-11.6235
▁characterised	-11.6236
▁RA	-11.6237
▁surpass	-11.6244
Krishna	-11.6251
▁postal	-11.6255
▁comb	-11.6255
▁designation	-11.6259
▁attempting	-11.6261
▁priestly	-11.6261
▁tusks	-11.6262
lex	-11.6263
▁damaged	-11.6268
shell	-11.6268
▁insert	-11.6271
think	-11.6271
▁Mándu	-11.6271
▁dictate	-11.6271
▁footsteps	-11.6271
▁polished	-11.6271
▁reservation	-11.6271
▁supplement	-11.6271
▁martial	-11.6271
▁pretence	-11.6271
▁promising	-11.6271
▁Zyna	-11.6271
▁shiver	-11.6271
shop	-11.6273
▁205	-11.6277
▁Refu	-11.6279
▁wondering	-11.6281
▁apprehend	-11.6286
▁1853	-11.6286
▁stricken	-11.6286
government	-11.6293
onia	-11.6295
▁doomed	-11.6295
TO	-11.6295
▁raft	-11.6296
▁Koli	-11.6298
▁solicitation	-11.6298
▁greeting	-11.6299
▁bearer	-11.6303
▁Kamma	-11.6307
XV	-11.6308
▁establishing	-11.631
▁Half	-11.6312
▁awaited	-11.6313
▁congress	-11.6313
▁gratification	-11.6313
▁leonine	-11.6313
▁preservation	-11.6313
▁disagreeable	-11.6314
[3]	-11.6315
▁magical	-11.6315
letter	-11.632
▁encourage	-11.633
oka	-11.6332
upon	-11.6333
having	-11.6335
▁Wild	-11.6335
▁800	-11.6335
smith	-11.6338
▁wrathful	-11.6343
śa	-11.635
vine	-11.6351
▁Ethnology	-11.6356
▁improper	-11.6356
▁kitchen	-11.6356
▁vernacular	-11.6356
▁carnage	-11.6356
▁enlarge	-11.6356
▁crawl	-11.6356
▁yogi	-11.6356
▁excel	-11.6356
▁malice	-11.6357
▁lamentations	-11.6357
▁awakened	-11.6357
▁tray	-11.6362
▁posture	-11.6363
▁secretary	-11.6365
▁betake	-11.6366
▁ablutions	-11.6367
ngle	-11.6368
▁indifference	-11.637
▁GO	-11.637
mbra	-11.637
▁Thence	-11.6375
▁resulted	-11.6375
respect	-11.6378
▁administered	-11.6378
decked	-11.6379
▁Khân	-11.6384
▁beautifully	-11.6385
▁345	-11.6385
▁disguised	-11.6394
▁Burdwan	-11.6398
▁Runjeet	-11.6398
▁indignation	-11.6398
▁inspiration	-11.6398
▁negotiate	-11.6398
▁girdle	-11.6398
▁riot	-11.6398
▁diamond	-11.6398
▁Swaraj	-11.64
▁supper	-11.64
▁remarriage	-11.6403
▁fringe	-11.6404
▁slab	-11.6404
▁Begum	-11.6404
▁sailing	-11.6405
ffici	-11.6418
▁plane	-11.6419
▁Pray	-11.6422
▁Right	-11.6425
▁yoked	-11.643
▁kindled	-11.6434
▁Follow	-11.644
ï	-11.644
▁lecture	-11.644
▁miraculous	-11.644
▁twang	-11.644
▁expert	-11.644
▁appease	-11.6441
▁dismay	-11.6442
▁confinement	-11.6443
▁smallest	-11.6445
▁Creat	-11.6446
▁£1	-11.6459
establish	-11.6463
wheel	-11.6463
vish	-11.6467
▁Dear	-11.6467
▁Paul	-11.6476
▁Fig	-11.6478
▁1898	-11.648
▁barbarous	-11.6483
▁colonial	-11.6483
▁indispensable	-11.6483
▁speculation	-11.6483
▁tyranny	-11.6483
▁Widow	-11.6483
▁dollars	-11.6483
▁smote	-11.6483
▁ardent	-11.6483
▁gorgeous	-11.6485
▁Adam	-11.6486
▁700	-11.6495
pada	-11.6497
mming	-11.6498
▁condemn	-11.6499
hû	-11.6499
în	-11.6503
▁Ever	-11.6509
▁equality	-11.6512
▁dip	-11.6514
▁signify	-11.6516
▁boughs	-11.6517
Maha	-11.6517
▁Govind	-11.6522
▁Superintendent	-11.6526
▁completion	-11.6526
▁episode	-11.6526
▁immigrant	-11.6526
▁irrigation	-11.6526
▁wolves	-11.6526
▁Worship	-11.6526
▁worm	-11.6526
▁1904	-11.6532
uga	-11.6535
bhava	-11.6537
▁contradiction	-11.6538
▁tended	-11.654
▁calmly	-11.6548
▁fruition	-11.6549
ṛi	-11.6564
▁architect	-11.6568
▁ambitious	-11.6569
▁sailors	-11.6571
▁Gulf	-11.6572
▁deserved	-11.6573
▁torrent	-11.6573
▁unfit	-11.6575
rtti	-11.6576
▁boxes	-11.6585
Western	-11.6592
grown	-11.6593
▁Ruler	-11.6598
▁purify	-11.66
▁vii	-11.6608
▁park	-11.6612
▁Rájput	-11.6613
▁Probably	-11.6613
▁dynasties	-11.6613
▁lizard	-11.6613
▁studies	-11.6613
▁scratch	-11.6613
▁courtesy	-11.6613
▁Konkan	-11.6613
Voyage	-11.6613
▁paramount	-11.6613
▁chastisement	-11.6614
▁dacoit	-11.6614
▁latitude	-11.6614
▁radiant	-11.6615
lord	-11.6615
▁wire	-11.6618
RES	-11.6619
PT	-11.6619
▁Round	-11.6619
▁chew	-11.6621
▁flashed	-11.6621
▁Panda	-11.6622
▁Æ	-11.6624
▁thicket	-11.6629
▁Pai	-11.663
▁confine	-11.663
ball	-11.6633
Listen	-11.6636
▁197	-11.6636
Aryan	-11.6637
Lord	-11.6637
▁Apsaras	-11.6656
▁Records	-11.6656
▁incantation	-11.6656
▁Behind	-11.6656
▁pursuing	-11.6656
▁provoke	-11.6656
▁draught	-11.6656
▁Middle	-11.6656
▁particle	-11.6656
▁peculiarities	-11.666
▁Uriya	-11.6661
▁Italy	-11.6663
▁Daksha	-11.6665
▁torment	-11.6666
hol	-11.6667
chen	-11.6667
bet	-11.6668
▁yoga	-11.6669
boy	-11.6677
give	-11.6677
▁lip	-11.6678
Akbar	-11.6679
people	-11.6679
kwa	-11.669
▁Maitreya	-11.67
▁guidance	-11.67
▁mutinous	-11.67
▁salutation	-11.67
▁threshold	-11.67
▁Fakir	-11.67
▁desolate	-11.67
▁recalled	-11.6713
▁loan	-11.6714
karma	-11.6719
present	-11.6719
▁persuade	-11.672
▁formally	-11.672
▁patch	-11.6726
▁lawful	-11.6731
Look	-11.6731
▁assure	-11.6732
▁mun	-11.6733
ccha	-11.6735
▁spy	-11.6737
▁prevailing	-11.6738
▁crushing	-11.6738
▁Khilafat	-11.6744
▁Ujjain	-11.6744
▁Vrikodara	-11.6744
▁fragrance	-11.6744
▁migration	-11.6744
▁preliminary	-11.6744
▁removing	-11.6744
▁mysteries	-11.6744
▁respond	-11.6744
▁Ninety	-11.6745
graha	-11.6745
▁xxxi	-11.6745
▁XVI	-11.6746
▁outcast	-11.6746
▁dresses	-11.6747
▁Spring	-11.6747
▁frighten	-11.6748
▁Pali	-11.6752
▁Commission	-11.6754
TED	-11.6755
▁harem	-11.6755
▁implements	-11.6762
▁appreciate	-11.6764
▁215	-11.6765
without	-11.677
axe	-11.6774
ender	-11.6774
▁mari	-11.6775
▁remembering	-11.6776
▁rash	-11.6776
▁Savar	-11.6783
▁Appendix	-11.6788
▁Gallatin	-11.6788
▁measuring	-11.6788
▁monstrous	-11.6788
▁obsolete	-11.6788
▁stupefied	-11.6788
▁washerman	-11.6788
▁Mosque	-11.6788
▁amusing	-11.6794
▁Order	-11.6797
áh	-11.6798
▁Mahá	-11.68
▁expressing	-11.68
▁knowest	-11.6801
▁gratify	-11.6801
jun	-11.6802
fourth	-11.6802
▁exclaim	-11.6805
▁imperfection	-11.6809
ident	-11.6814
▁diet	-11.6818
▁Jung	-11.6823
▁extinct	-11.6829
▁1895	-11.6829
▁199	-11.683
GRAPH	-11.6832
▁Afzool	-11.6832
▁conjecture	-11.6832
▁defiance	-11.6832
▁mutinied	-11.6832
▁romantic	-11.6832
▁Lahiri	-11.6832
▁humbly	-11.6832
▁jasmine	-11.6832
▁ignore	-11.6832
▁lump	-11.6832
▁Jacob	-11.6832
▁envy	-11.6834
▁Could	-11.6834
▁porch	-11.6835
▁readiness	-11.6835
▁vanity	-11.6836
▁inspection	-11.6837
▁selection	-11.6838
logue	-11.684
▁bower	-11.6843
▁Kachh	-11.6845
fur	-11.6849
▁phil	-11.6851
▁194	-11.6852
▁comprised	-11.6852
▁combine	-11.6854
Arjuna	-11.6856
▁ghat	-11.6856
▁allowing	-11.686
▁Kasi	-11.6864
▁246	-11.6865
akshi	-11.6866
▁kettle	-11.6876
▁Bulwunt	-11.6876
▁Elephant	-11.6876
▁Sanscrit	-11.6876
▁beauteous	-11.6876
▁variation	-11.6876
▁venerate	-11.6876
▁piteous	-11.6877
▁ensure	-11.6877
▁demonstrate	-11.6877
khar	-11.6877
▁navigation	-11.6877
▁Ṡ	-11.6878
▁View	-11.688
▁211	-11.6882
▁Tree	-11.6887
▁Poor	-11.6893
▁renown	-11.6894
▁sprinkle	-11.6897
▁celebrate	-11.6897
mouth	-11.6901
▁Ajit	-11.6905
quo	-11.6907
change	-11.6918
▁Nawâb	-11.6921
▁Rifles	-11.6921
▁disastrous	-11.6921
▁hypothesis	-11.6921
▁abiding	-11.6921
▁cautious	-11.6921
▁cycle	-11.6921
▁relax	-11.6921
▁sincerity	-11.6921
▁1/2	-11.6921
▁fawn	-11.6922
▁major	-11.6925
▁Mata	-11.6928
▁deaf	-11.6932
▁Rākshasa	-11.6933
▁2000	-11.6934
▁graced	-11.6938
▁char	-11.6941
▁Main	-11.6943
Bombay	-11.6945
▁boiling	-11.6949
dho	-11.6952
▁Bhâ	-11.6953
▁Madri	-11.6954
gging	-11.6956
ographi	-11.6962
Alas	-11.6965
▁Agastya	-11.6966
▁Gurjjara	-11.6966
▁degradation	-11.6966
▁expanse	-11.6966
▁horrid	-11.6966
▁installed	-11.6966
▁organisation	-11.6966
▁grandeur	-11.6966
pervading	-11.6966
▁Boston	-11.6966
▁Police	-11.6967
▁nay	-11.6969
▁1908	-11.697
▁refute	-11.6972
▁XVIII	-11.6973
▁Peace	-11.6974
▁Himalayan	-11.6979
shire	-11.698
▁1848	-11.6981
▁quest	-11.6984
▁transit	-11.6985
akra	-11.6985
Don	-11.6986
▁mob	-11.6986
▁eighteenth	-11.6987
▁1880	-11.6988
▁Certain	-11.6989
▁legally	-11.6989
▁Sham	-11.699
▁236	-11.6991
▁Sala	-11.6994
▁glowing	-11.6996
8|	-11.6998
▁CON	-11.7
▁Phœnicia	-11.7001
▁soothe	-11.701
▁Camoëns	-11.7011
▁Prishata	-11.7011
▁henceforth	-11.7011
▁scruple	-11.7011
▁strove	-11.7011
▁redeem	-11.7011
▁sweat	-11.7011
▁1888	-11.7012
▁Santanu	-11.7012
▁courteous	-11.7012
Our	-11.7013
▁Tartar	-11.7014
▁Chamberlain	-11.7016
▁Bodhi	-11.7017
▁traversed	-11.7022
▁beach	-11.7026
Annals	-11.7034
loading	-11.7034
▁renew	-11.7036
▁verb	-11.7038
class	-11.7038
▁dearest	-11.7039
▁existent	-11.7041
woman	-11.7041
▁locked	-11.7042
▁Imp	-11.7044
▁richest	-11.7051
▁resent	-11.7056
▁Concerning	-11.7056
▁Despite	-11.7056
▁influential	-11.7056
▁whetted	-11.7056
▁portrait	-11.7056
▁infancy	-11.7056
▁parcel	-11.7056
▁Kadir	-11.7056
▁adjust	-11.7056
▁Reincarnation	-11.7057
▁scrap	-11.7057
▁commentary	-11.7058
▁attractive	-11.7058
▁Darkness	-11.7059
▁hoping	-11.706
dari	-11.706
▁planned	-11.7061
▁caravan	-11.7061
▁glare	-11.7062
▁inmates	-11.7062
▁Bhutan	-11.7063
▁fishes	-11.7067
▁Rewa	-11.7069
▁despised	-11.7074
▁tint	-11.708
brown	-11.7082
soever	-11.7082
▁darker	-11.7085
▁gratefully	-11.709
▁occupational	-11.7096
áma	-11.71
▁gale	-11.7101
▁Tuesday	-11.7102
▁distrust	-11.7102
▁rapture	-11.7102
▁swore	-11.7102
▁OTHER	-11.7102
▁NAME	-11.7102
▁MAN	-11.7102
▁contracted	-11.7104
▁$	-11.7104
▁weakened	-11.7106
▁fox	-11.7107
▁Board	-11.7107
▁hardship	-11.7111
▁Panjâb	-11.7112
▁ceaseless	-11.7112
▁Mess	-11.7112
Deen	-11.7114
▁peculiarly	-11.7115
▁1876	-11.712
UP	-11.712
doo	-11.7123
▁vanish	-11.7123
Tribes	-11.7127
▁189	-11.7132
India	-11.7132
▁poisoned	-11.7132
▁sinking	-11.7134
▁attending	-11.7142
▁expedient	-11.7147
▁Trimmul	-11.7147
▁calamities	-11.7147
▁convenience	-11.7147
▁plentiful	-11.7147
▁Speech	-11.7147
▁nobility	-11.7147
TIVE	-11.7147
▁inferred	-11.7147
▁(5)	-11.7147
▁Hindū	-11.7148
▁bunch	-11.7149
▁aroused	-11.7149
▁designated	-11.7153
▁mutt	-11.7156
▁gall	-11.7157
▁solemnly	-11.7159
▁1859	-11.716
▁...|	-11.7162
▁hog	-11.7164
▁roughly	-11.7166
▁contributed	-11.7168
mukha	-11.7168
▁precede	-11.7169
▁communicate	-11.717
▁Camp	-11.717
▁256	-11.7177
▁dew	-11.7177
Right	-11.7183
[4]	-11.7189
▁violently	-11.7192
▁Survey	-11.7193
▁NATIVE	-11.7193
▁concluding	-11.7193
▁decisive	-11.7193
▁globe	-11.7193
▁incorrect	-11.7193
▁solitude	-11.7193
▁surprising	-11.7193
▁swung	-11.7193
▁transcribe	-11.7193
▁veneration	-11.7193
▁Vāli	-11.7193
▁enmity	-11.7193
▁Italian	-11.7194
▁Protect	-11.7194
▁Produce	-11.7194
▁Until	-11.7194
▁astral	-11.7195
▁Judah	-11.7195
▁stripped	-11.7196
▁renunciation	-11.7197
▁triumphant	-11.7198
▁fitting	-11.7203
▁Knowing	-11.7204
▁Ken	-11.7207
▁Bhaga	-11.7208
bia	-11.7209
▁attraction	-11.7214
Can	-11.7217
enne	-11.7217
▁flourishing	-11.7218
existent	-11.7219
(3)	-11.722
▁212	-11.722
▁advise	-11.7221
▁worshipful	-11.7223
dded	-11.7223
itch	-11.7228
▁professed	-11.723
jja	-11.7232
▁Review	-11.7239
▁Hardwicke	-11.7239
▁inaccurate	-11.7239
▁obstinate	-11.7239
▁romance	-11.7239
▁commend	-11.7239
▁Filled	-11.7239
▁allotted	-11.7239
▁Ireland	-11.7239
[#]	-11.7239
▁charities	-11.724
▁occupies	-11.724
▁cordial	-11.7241
▁Chap	-11.7242
▁Sankara	-11.7244
▁lick	-11.7247
▁Friend	-11.7247
▁Chha	-11.7249
▁Koran	-11.7255
▁propitiated	-11.7257
▁homeward	-11.7258
elle	-11.726
▁applauded	-11.726
▁mournful	-11.7269
▁godling	-11.7276
▁routed	-11.7279
Mulk	-11.7281
direct	-11.7281
▁Hyderabad	-11.7285
▁Mahmúd	-11.7285
▁Sikkim	-11.7285
▁addicted	-11.7285
▁compilation	-11.7285
▁sojourn	-11.7285
▁Sigrid	-11.7285
▁fishermen	-11.7285
▁bargain	-11.7285
▁plaster	-11.7285
gû	-11.7286
thâ	-11.7286
▁flutter	-11.7286
▁Sankhya	-11.7288
▁grip	-11.7289
dár	-11.7291
▁196	-11.7294
gurh	-11.73
▁regal	-11.73
root	-11.7309
▁detect	-11.731
Dhritarashtra	-11.7312
contact	-11.7312
take	-11.7314
▁260	-11.7316
▁esteemed	-11.7316
▁failing	-11.7325
▁Gor	-11.7326
▁Gospel	-11.7332
▁Hamilton	-11.7332
▁meritorious	-11.7332
▁superstitious	-11.7332
▁Savitri	-11.7332
▁severity	-11.7332
▁streak	-11.7332
▁villain	-11.7332
▁vulgar	-11.7332
ábád	-11.7332
▁imposing	-11.7333
▁Murray	-11.7333
swami	-11.7333
▁suspicious	-11.7333
▁properties	-11.7334
▁Regent	-11.7335
▁Came	-11.7335
charya	-11.7336
▁Justine	-11.7336
▁Parsee	-11.7338
▁donation	-11.7339
▁Dhu	-11.7341
▁1881	-11.7343
▁enumerated	-11.7344
▁Around	-11.7344
▁basin	-11.7348
▁proprietary	-11.7348
▁marrying	-11.7352
▁1879	-11.7358
▁Judge	-11.736
▁originate	-11.7361
▁lb	-11.7365
▁planet	-11.7365
▁greet	-11.7367
▁oneself	-11.7368
▁overtake	-11.7377
ANA	-11.7378
▁Eternal	-11.7379
▁International	-11.7379
▁Mexico	-11.7379
▁crocodile	-11.7379
▁despite	-11.7379
▁paradise	-11.7379
▁symptom	-11.7379
▁Sumantra	-11.7379
▁notorious	-11.7379
▁carving	-11.7379
▁forbid	-11.7379
▁mullah	-11.738
▁270	-11.738
▁dropping	-11.738
ensuring	-11.7381
▁discard	-11.7381
▁Compton	-11.7381
▁missing	-11.7382
▁Remember	-11.7383
▁debate	-11.7384
mill	-11.7384
▁1905	-11.7387
▁reared	-11.7389
▁shorter	-11.7393
▁252	-11.7393
▁smite	-11.7395
▁penetrate	-11.7402
EMENT	-11.7408
bridge	-11.7408
▁Kamal	-11.741
▁disclaim	-11.7411
▁Peter	-11.7415
mili	-11.7417
▁missed	-11.7424
▁corporation	-11.7426
▁jurisdiction	-11.7426
▁undertook	-11.7426
▁forfeit	-11.7426
▁smart	-11.7426
▁veins	-11.7426
▁frown	-11.7427
▁predict	-11.7427
▁recommend	-11.7432
bone	-11.7435
▁1882	-11.7437
▁gardener	-11.7439
▁incessantly	-11.744
▁ev	-11.744
▁embarked	-11.744
▁improve	-11.744
▁Tim	-11.7444
▁hover	-11.7446
▁1884	-11.7453
spirit	-11.7454
ée	-11.7457
icus	-11.7462
▁Mali	-11.7463
σ	-11.7473
▁Dhruva	-11.7473
▁UNDER	-11.7473
▁furniture	-11.7473
▁seclusion	-11.7473
▁sensible	-11.7473
▁tragedy	-11.7473
▁Carthage	-11.7473
▁sweeping	-11.7473
▁Large	-11.7473
▁Maithil	-11.7473
▁weaving	-11.7473
bhadra	-11.7475
▁206	-11.7477
▁Zo	-11.7481
▁appealed	-11.7483
▁Max	-11.7487
▁reckon	-11.7493
▁delivery	-11.7498
▁198	-11.7506
▁Kuruba	-11.7508
▁delayed	-11.7509
▁curve	-11.751
rice	-11.751
▁Pau	-11.7513
▁torch	-11.7518
▁Bag	-11.7518
▁Bahádur	-11.752
▁Boucicault	-11.752
▁Tinnevelly	-11.752
▁embracing	-11.752
▁shattered	-11.752
▁skeleton	-11.752
▁twilight	-11.752
▁Lanká	-11.752
▁termination	-11.752
▁Himavat	-11.752
▁oriental	-11.752
▁stoop	-11.752
▁marries	-11.7523
▁justify	-11.7524
▁rebirth	-11.7525
▁drunken	-11.7527
▁genus	-11.7527
▁Deep	-11.7528
▁spit	-11.7536
cup	-11.7539
Hindu	-11.7547
▁faithfully	-11.7548
Very	-11.755
▁piled	-11.7555
trained	-11.7556
▁Amb	-11.7558
▁1862	-11.7563
▁warn	-11.7564
▁superintend	-11.7566
▁Bahadur	-11.7568
▁Ganjam	-11.7568
▁arbitra	-11.7568
▁linguistic	-11.7568
▁reconcile	-11.7568
▁technical	-11.7568
▁indefinite	-11.7568
▁courtiers	-11.7568
▁Foster	-11.7569
▁Gand	-11.7569
▁utterance	-11.7572
▁Neill	-11.7572
▁Johnson	-11.7575
▁─────────────	-11.7579
▁annexed	-11.7579
▁detach	-11.758
▁licensed	-11.7581
▁Parva	-11.7586
”),	-11.7593
▁Press	-11.7594
word	-11.7595
jra	-11.7596
▁behaved	-11.7597
▁Yudhishthir	-11.7602
▁Faith	-11.761
▁eunuch	-11.7616
▁militia	-11.7616
▁sanctuary	-11.7616
▁stanza	-11.7616
▁Kuvera	-11.7616
▁Foreign	-11.7616
▁Turkey	-11.7616
▁draft	-11.7617
▁persistent	-11.7618
▁lawyer	-11.7621
Travels	-11.7621
▁Jahan	-11.7623
▁overtaken	-11.7625
▁famed	-11.7628
▁Kusa	-11.7632
▁1,5	-11.7633
▁Kurmi	-11.7635
▁enforced	-11.7636
▁enjoin	-11.7636
▁tending	-11.7639
Those	-11.7643
built	-11.7643
▁greeted	-11.7644
profit	-11.7644
▁deliberate	-11.7646
▁Homer	-11.7646
rush	-11.765
▁similarity	-11.765
▁expecting	-11.7651
▁deepest	-11.7652
corn	-11.7652
▁Lancers	-11.7664
▁appreciation	-11.7664
▁celebration	-11.7664
▁constituting	-11.7664
▁derivation	-11.7664
▁tributary	-11.7664
▁bridal	-11.7664
▁pillow	-11.7664
panchayat	-11.7664
▁wreck	-11.7664
▁gorge	-11.7664
▁adultery	-11.7664
▁fetter	-11.7665
▁habitual	-11.7666
▁issuing	-11.7666
▁peep	-11.7668
▁judged	-11.7669
▁245	-11.767
▁Range	-11.7671
▁Mitra	-11.7672
▁tempt	-11.7675
▁willingly	-11.7678
▁shrouded	-11.7681
▁deliberately	-11.7681
▁MS	-11.7688
▁pad	-11.7689
knowledge	-11.7692
▁bracelet	-11.7693
▁Sepoy	-11.7694
▁fright	-11.7697
▁209	-11.77
▁360	-11.7703
▁thickly	-11.7705
▁Tomb	-11.7708
▁Political	-11.7712
▁annihilate	-11.7712
▁crooked	-11.7712
▁grievance	-11.7712
▁journal	-11.7712
▁confounded	-11.7712
▁donkey	-11.7712
▁alleged	-11.7712
▁Afterwards	-11.7712
▁refusing	-11.7713
▁Richard	-11.7713
▁Queries	-11.7713
▁conveyance	-11.7715
▁Speak	-11.7717
▁219	-11.7719
▁Also	-11.7722
▁fain	-11.7722
▁Bara	-11.7726
▁modesty	-11.7729
▁seer	-11.7739
kari	-11.775
▁realised	-11.7751
▁Fall	-11.7752
▁endeavouring	-11.7753
TM	-11.7758
eater	-11.7761
▁Calicut	-11.7761
▁Parāçara	-11.7761
▁Serpent	-11.7761
▁Wednesday	-11.7761
▁circuit	-11.7761
▁demonstration	-11.7761
▁engraved	-11.7761
▁fabric	-11.7761
▁unbroken	-11.7761
▁impelled	-11.7761
▁supposing	-11.7761
▁ivory	-11.7761
▁encouragement	-11.7763
▁grade	-11.7764
MARK	-11.7765
▁1836	-11.7765
▁1897	-11.7766
▁boil	-11.7767
New	-11.7769
▁doom	-11.7769
▁501	-11.7769
▁Make	-11.777
▁threaten	-11.7771
▁heroism	-11.7777
▁cub	-11.7777
▁PARA	-11.7781
western	-11.7787
Ramayana	-11.7789
▁216	-11.7791
chandra	-11.7792
▁Canal	-11.7794
▁Mau	-11.7795
tsi	-11.78
▁preached	-11.7801
▁jest	-11.7802
▁Show	-11.7806
ANG	-11.7807
▁Providence	-11.7809
▁approval	-11.7809
▁encompass	-11.7809
▁muzzle	-11.7809
▁pilot	-11.7809
▁Husain	-11.7809
▁initiation	-11.7809
▁blend	-11.781
▁levy	-11.781
▁HAVE	-11.781
▁invented	-11.781
▁drill	-11.7811
▁Anunda	-11.7814
▁spike	-11.7814
▁scare	-11.7816
▁noose	-11.7816
kali	-11.7818
▁universally	-11.7819
▁dishes	-11.7822
▁precisely	-11.7823
▁background	-11.7823
▁204	-11.7825
▁sexes	-11.7825
▁grasped	-11.7831
▁clasp	-11.7831
▁exchanged	-11.7832
▁lifetime	-11.7832
▁Tales	-11.7837
andra	-11.7838
flower	-11.7838
▁Guide	-11.7842
▁Kawar	-11.7846
▁betrayed	-11.785
▁343	-11.7853
▁observer	-11.7856
▁expound	-11.7856
▁disk	-11.7858
▁Musalmán	-11.7858
▁Number	-11.7858
▁authentic	-11.7858
▁barbarians	-11.7858
▁definition	-11.7858
▁efficacy	-11.7858
▁embodiment	-11.7858
▁holiday	-11.7858
▁masonry	-11.7858
▁significant	-11.7858
▁swoon	-11.7858
▁Collection	-11.7858
▁copious	-11.7858
▁reaction	-11.7858
▁crash	-11.7859
▁obverse	-11.7859
▁treating	-11.7859
▁invention	-11.7859
▁fixing	-11.7859
▁Warren	-11.786
▁preference	-11.7861
▁whereupon	-11.7866
▁Internal	-11.7869
Give	-11.787
▁buddhi	-11.7872
elect	-11.7875
datta	-11.788
▁partner	-11.7888
▁sharply	-11.7891
muni	-11.7895
▁finer	-11.7901
tales	-11.7903
▁Kalpa	-11.7903
▁1886	-11.7905
κ	-11.7908
▁Immediately	-11.7908
▁Kashmír	-11.7908
▁Photograph	-11.7908
▁Protestant	-11.7908
▁Smriti	-11.7908
▁infringement	-11.7908
▁knives	-11.7908
▁surmounted	-11.7908
▁crescent	-11.7908
▁shirt	-11.7908
▁intrenchment	-11.7908
▁Champa	-11.7908
▁pepper	-11.7908
▁divert	-11.7909
▁grieved	-11.7909
▁XVII	-11.7909
▁horizontal	-11.791
▁entry	-11.7911
▁heedless	-11.7911
▁volley	-11.7911
▁1921	-11.7918
▁excluded	-11.7925
▁emerged	-11.793
▁publication	-11.7933
▁Germany	-11.7935
Je	-11.7937
poo	-11.7939
▁PRO	-11.7943
great	-11.7949
▁Salim	-11.795
▁Dost	-11.7951
apple	-11.7953
▁BO	-11.7953
▁Wheeler	-11.7957
▁Jamaica	-11.7957
▁clung	-11.7957
▁conspiracy	-11.7957
▁destination	-11.7957
▁epoch	-11.7957
▁Madame	-11.7957
▁cottage	-11.7957
▁memories	-11.7957
▁Blue	-11.7957
▁organised	-11.7958
▁groom	-11.796
▁230	-11.7961
▁erection	-11.797
▁adapted	-11.7974
▁foreigners	-11.7982
▁335	-11.7983
▁disarm	-11.7984
▁Chait	-11.7985
blood	-11.7987
▁stealing	-11.7989
▁241	-11.799
âsa	-11.7991
dîn	-11.7993
Kan	-11.7994
▁weaver	-11.7995
moon	-11.8
▁blazed	-11.8003
▁Daçarātha	-11.8007
▁activities	-11.8007
▁encampment	-11.8007
▁endogamous	-11.8007
▁phenomenon	-11.8007
▁tamarind	-11.8007
▁reluctant	-11.8007
▁Leaving	-11.8007
▁urging	-11.8007
▁inquiries	-11.8007
yojana	-11.8007
Population	-11.8007
▁temperature	-11.8007
▁expire	-11.8009
▁Sâgar	-11.8009
▁ice	-11.801
▁originator	-11.8011
▁defenders	-11.8019
▁curry	-11.802
kalpa	-11.8022
▁peculiarity	-11.8024
▁depending	-11.8026
▁coss	-11.8029
▁artistic	-11.8029
▁pronounce	-11.8033
▁Whenever	-11.8034
▁Ratan	-11.8048
Q	-11.8049
▁fist	-11.8052
▁sadly	-11.8056
▁dine	-11.8056
λ	-11.8057
▁Rabbit	-11.8057
▁eloquent	-11.8057
▁impetuosity	-11.8057
▁unlimited	-11.8057
▁deposed	-11.8057
▁impurity	-11.8057
▁EVEN	-11.8057
▁Skanda	-11.8057
▁Sumatra	-11.8057
▁Yadava	-11.8057
▁binary	-11.8057
▁muttered	-11.8057
▁cubits	-11.8057
▁banquet	-11.8057
▁Beneath	-11.8057
▁transcription	-11.8057
▁scarlet	-11.8057
▁liberate	-11.8058
▁>	-11.8058
▁Bastar	-11.8059
▁tuft	-11.806
▁Sivaji	-11.8063
▁sinner	-11.8063
▁transformation	-11.8064
NITY	-11.8068
▁disregarded	-11.8073
treat	-11.8075
▁Ross	-11.8083
▁Rāja	-11.8084
breath	-11.8087
nurse	-11.8087
pâda	-11.8087
▁vigorously	-11.8088
stick	-11.8088
▁transported	-11.809
▁recovery	-11.809
▁Nand	-11.8092
igger	-11.8095
▁Kush	-11.8101
▁habitat	-11.8101
veda	-11.8103
horse	-11.8106
▁eternity	-11.8107
▁legislation	-11.8107
▁Saivite	-11.8107
▁alphabet	-11.8107
▁forefathers	-11.8107
▁Umballa	-11.8107
▁Messrs	-11.8109
▁waking	-11.8109
▁incurred	-11.8109
▁civilised	-11.811
ancy	-11.811
▁253	-11.8113
▁HIS	-11.8118
▁losses	-11.8123
▁acceptable	-11.8125
▁projecting	-11.8131
gula	-11.8132
North	-11.8137
▁behove	-11.8149
▁fortunately	-11.8156
▁Damayanti	-11.8158
▁Momín	-11.8158
▁STORY	-11.8158
▁reproduce	-11.8158
▁suppliant	-11.8158
âbâd	-11.8158
▁negation	-11.8158
▁reciting	-11.8158
▁denoting	-11.8158
▁sûtras	-11.8158
▁Buxa	-11.8159
▁bazar	-11.8159
their	-11.816
▁mouse	-11.8162
▁Bhuiya	-11.8166
▁narrated	-11.8169
▁234	-11.8171
▁retainers	-11.8171
▁prolonged	-11.8174
▁trench	-11.8175
▁cheat	-11.8176
▁announce	-11.8181
serving	-11.8184
▁appreciated	-11.8185
▁Map	-11.8185
▁1887	-11.8187
artillery	-11.8188
▁comparative	-11.8191
▁Bhim	-11.8197
msâ	-11.8197
named	-11.8198
▁Mîmâ	-11.8208
▁Palestine	-11.8208
▁accompaniment	-11.8208
▁chicken	-11.8208
▁eloquence	-11.8208
▁patriarch	-11.8208
▁fraud	-11.8208
▁palmyra	-11.8208
▁247	-11.8209
▁tirtha	-11.8209
▁thankful	-11.821
izz	-11.821
▁Maruts	-11.8211
▁Guard	-11.8212
[11]	-11.8214
▁revelation	-11.8214
▁Ibid	-11.8218
▁yellowish	-11.8218
grand	-11.8229
▁Alum	-11.8238
Folk	-11.8239
▁1885	-11.8246
[5]	-11.8251
▁hinder	-11.8251
▁Vellala	-11.8252
▁babe	-11.8252
▁bust	-11.8254
▁Division	-11.8259
▁Peshawur	-11.8259
▁complicated	-11.8259
▁profusion	-11.8259
▁sergeant	-11.8259
▁Bulger	-11.8259
▁tumult	-11.8259
▁cardinal	-11.8259
▁Keshava	-11.826
▁matchlock	-11.826
▁electric	-11.826
▁indulgence	-11.826
▁remarkably	-11.8261
▁resentment	-11.8262
▁Creation	-11.8263
▁treaties	-11.8263
▁249	-11.8265
ambha	-11.8265
▁gray	-11.8266
▁hotel	-11.8267
▁207	-11.8268
just	-11.8269
▁worshipper	-11.8272
▁Forest	-11.8273
▁Bright	-11.8274
THING	-11.8283
▁administer	-11.8283
▁comprise	-11.8288
▁detected	-11.829
▁admired	-11.829
▁surpassed	-11.8293
▁substituted	-11.8298
▁dyed	-11.8298
▁stamped	-11.8304
▁exceptional	-11.8306
▁elected	-11.831
▁Additional	-11.8311
▁Nilgiri	-11.8311
▁Salutations	-11.8311
▁neutral	-11.8311
▁survivor	-11.8311
▁dwarf	-11.8311
▁Understanding	-11.8311
▁Tower	-11.8311
▁mandate	-11.8312
▁Dalton	-11.8312
▁duration	-11.8314
▁landlord	-11.8314
▁yourselves	-11.8314
▁perilous	-11.8314
▁2)	-11.8317
▁Small	-11.832
LES	-11.832
▁Mandla	-11.832
▁adopting	-11.8322
▁childless	-11.8325
twas	-11.8327
▁vote	-11.8328
Jo	-11.8328
cart	-11.8329
▁curiously	-11.833
▁Song	-11.8338
▁emerge	-11.8339
▁sowing	-11.8344
NO	-11.8345
▁snowy	-11.8355
▁lawless	-11.8356
▁preaching	-11.8359
-1/4	-11.8362
▁Contributions	-11.8362
▁Fortunately	-11.8362
▁Stewart	-11.8362
▁betrothal	-11.8362
▁concession	-11.8362
▁indignant	-11.8362
▁parliament	-11.8362
▁racial	-11.8362
▁elbow	-11.8363
▁225	-11.8364
1|	-11.8368
rono	-11.8371
▁accumulated	-11.8371
▁Palla	-11.8373
luck	-11.8374
▁Boya	-11.8384
▁Eight	-11.8385
▁borrow	-11.8387
▁morrow	-11.8387
▁sown	-11.8387
▁Pope	-11.8388
▁208	-11.8388
▁Fear	-11.8388
▁promote	-11.8391
▁woo	-11.8392
▁inhabiting	-11.8412
▁advent	-11.8414
▁HISTORY	-11.8414
▁appetite	-11.8414
▁everlasting	-11.8414
▁monopoly	-11.8414
▁suicide	-11.8414
▁unsuccessful	-11.8414
▁exult	-11.8415
▁rational	-11.8415
▁amiable	-11.8415
Taitt	-11.8415
▁underneath	-11.8417
▁WILL	-11.8418
price	-11.8419
▁readable	-11.842
▁overwhelming	-11.8424
▁loot	-11.8424
▁dragon	-11.8426
▁dancers	-11.8426
▁Panwar	-11.8428
much	-11.8429
▁starve	-11.8432
3|	-11.8433
▁Anim	-11.844
claim	-11.8444
▁meditated	-11.8448
▁Command	-11.845
▁List	-11.8459
▁Engineer	-11.8466
▁Village	-11.8466
▁fief	-11.8466
▁leopard	-11.8466
▁offshoot	-11.8466
▁response	-11.8466
▁retinue	-11.8466
▁scimitar	-11.8466
▁temporarily	-11.8466
▁Scindia	-11.8466
▁roast	-11.8467
▁Agency	-11.8467
▁proposition	-11.8468
▁Louison	-11.8469
▁Ananta	-11.847
▁climbing	-11.847
▁exaggerated	-11.8472
▁torches	-11.8474
▁BUT	-11.8478
▁Chang	-11.8486
bound	-11.8487
▁contribute	-11.8495
▁tempted	-11.8496
▁Yogi	-11.8497
▁cake	-11.8502
▁hedge	-11.851
▁reflecting	-11.8513
▁murmured	-11.8515
▁Sinh	-11.8517
▁Sunar	-11.8517
▁Bikaner	-11.8518
▁Gatschet	-11.8518
▁Mohawk	-11.8518
▁inaccessible	-11.8518
▁presiding	-11.8518
▁Pontiac	-11.8519
▁puzzle	-11.8519
▁incarnate	-11.8519
▁initiated	-11.8519
▁desiring	-11.8519
▁Watson	-11.852
▁favorite	-11.8521
▁naval	-11.8522
▁kite	-11.8522
▁Ranee	-11.8523
foot	-11.8523
▁loom	-11.8526
▁num	-11.8528
▁Math	-11.8531
▁1899	-11.8532
▁kissed	-11.8535
▁madness	-11.8538
▁instrumental	-11.8539
▁argued	-11.854
▁lineage	-11.8545
TIAL	-11.8547
XII	-11.8549
first	-11.8551
▁nomad	-11.8552
ūr	-11.8554
gah	-11.8556
▁1896	-11.8559
▁echoed	-11.8562
hole	-11.8563
▁BEFORE	-11.8571
▁Convention	-11.8571
▁concentration	-11.8571
▁divinities	-11.8571
▁emancipate	-11.8571
▁energies	-11.8571
▁prophecy	-11.8571
▁nervous	-11.8571
▁fiction	-11.8571
▁Street	-11.8571
▁reddish	-11.8571
▁molest	-11.8571
▁stress	-11.8575
▁Pariah	-11.8575
▁Social	-11.8581
▁engine	-11.8581
▁leaning	-11.8591
footed	-11.8592
▁raging	-11.8595
▁personality	-11.86
▁Against	-11.8602
apparent	-11.8604
▁barely	-11.8607
hyâ	-11.8608
fact	-11.8609
▁surname	-11.8613
▁assassin	-11.8619
▁Banda	-11.8619
▁veranda	-11.8621
▁Low	-11.8623
▁escaping	-11.8624
▁survival	-11.8624
▁FOOTNOTES	-11.8624
▁levied	-11.8624
▁institute	-11.8624
▁brood	-11.8626
▁measurement	-11.8626
▁Word	-11.8627
▁Twenty	-11.8629
▁Illustrations	-11.863
▁Báli	-11.8632
cross	-11.8633
ATE	-11.8635
▁Rani	-11.864
▁joke	-11.8643
▁Que	-11.8644
▁hunted	-11.8651
▁accompanying	-11.8654
▁resume	-11.8654
▁reeds	-11.8655
▁hesitated	-11.8658
▁Patan	-11.8658
▁259	-11.8669
vali	-11.8669
Ditto	-11.8674
œ	-11.8677
▁RIGHT	-11.8677
▁Testament	-11.8677
▁obeisance	-11.8677
▁offensive	-11.8677
▁transmigration	-11.8677
▁Banjara	-11.8677
▁GAMA	-11.8677
▁fancied	-11.8677
▁Fazl	-11.8677
▁Close	-11.8678
▁lavish	-11.8679
▁Jackson	-11.8679
▁systematic	-11.8679
▁Mecca	-11.868
▁watchful	-11.8684
▁Edwardes	-11.869
▁heartily	-11.8693
▁withdrawal	-11.8694
▁chaste	-11.8694
▁shoe	-11.8694
▁oppress	-11.8697
▁Patta	-11.87
▁232	-11.87
▁254	-11.87
▁Station	-11.8702
▁flourished	-11.8703
fifth	-11.871
▁Doab	-11.8711
ALI	-11.8713
▁trader	-11.8716
▁248	-11.8726
cott	-11.8726
▁MAR	-11.8728
-3/4	-11.8731
▁Assembly	-11.8731
▁Jehovah	-11.8731
▁TRADE	-11.8731
▁earthquake	-11.8731
▁efficiency	-11.8731
▁merciful	-11.8731
▁uplifted	-11.8731
▁zamindar	-11.8731
▁approximat	-11.8731
▁hazard	-11.8731
▁horde	-11.8731
▁inscribed	-11.8732
▁intercept	-11.8732
▁hammer	-11.8732
▁dispelled	-11.8734
hani	-11.8735
▁Saul	-11.8736
▁Kritavarman	-11.8736
▁Kumbha	-11.8738
▁#	-11.874
9|	-11.8742
down	-11.8742
▁Chota	-11.8743
▁End	-11.8744
▁overthrown	-11.8745
▁Road	-11.8747
▁prohibit	-11.8751
▁Young	-11.8757
▁enquire	-11.8761
▁interpret	-11.8762
priest	-11.8765
▁expel	-11.8783
▁Almighty	-11.8784
▁Copyright	-11.8784
▁Notwithstanding	-11.8784
▁nuptial	-11.8784
▁Merriman	-11.8784
▁KIND	-11.8784
▁sanctioned	-11.8785
▁gloss	-11.8785
▁Lion	-11.8786
▁verily	-11.8786
▁midday	-11.8788
▁gram	-11.879
▁Abdul	-11.879
Bhagavad	-11.879
▁contrived	-11.8792
▁pujari	-11.8795
▁desist	-11.88
▁dumb	-11.88
▁operate	-11.88
▁revived	-11.8801
▁inherited	-11.8804
▁wert	-11.8812
▁momentary	-11.8818
▁214	-11.8818
divided	-11.8818
▁hanged	-11.8819
bury	-11.8821
[12]	-11.8821
▁galloped	-11.8823
▁coil	-11.8824
▁809	-11.8825
uria	-11.883
▁Curzon	-11.8839
▁Jhansi	-11.8839
▁Standard	-11.8839
▁endurance	-11.8839
▁Napier	-11.8839
▁attentive	-11.8839
▁faded	-11.8839
▁Battle	-11.8839
▁swim	-11.884
▁parched	-11.8842
▁endured	-11.8844
▁Rawal	-11.8847
▁enlightened	-11.8848
▁unfold	-11.8855
▁Hur	-11.8855
▁Angada	-11.8858
▁325	-11.886
▁Shri	-11.8862
▁morn	-11.8862
▁plunge	-11.8869
▁Ā	-11.8876
▁disarmed	-11.8877
▁BOOK	-11.8878
5|	-11.8879
▁needle	-11.888
▁217	-11.8881
adhya	-11.8886
▁Contact	-11.8893
▁abolished	-11.8893
▁calculation	-11.8893
▁Ayeshi	-11.8893
▁Cloud	-11.8893
▁Account	-11.8893
▁Cornwall	-11.8893
▁rubbing	-11.8893
▁supposition	-11.8893
▁Epic	-11.8893
▁Videha	-11.8894
▁initial	-11.8894
▁banyan	-11.8894
▁index	-11.8896
▁lame	-11.89
▁simultaneously	-11.89
▁amused	-11.8901
▁upset	-11.8902
▁Folk	-11.8915
▁rejoined	-11.8916
▁whereby	-11.8918
▁twist	-11.892
▁link	-11.8931
child	-11.8934
▁singularly	-11.8937
▁tries	-11.8943
▁vary	-11.8943
▁APPENDIX	-11.8948
▁Children	-11.8948
▁Distributed	-11.8948
▁accuracy	-11.8948
▁clergy	-11.8948
▁decrease	-11.8948
▁installation	-11.8948
▁rugged	-11.8948
▁Collector	-11.8948
▁sullen	-11.8948
▁retiring	-11.8948
▁rebuke	-11.8948
▁XIX	-11.8949
▁locations	-11.8949
▁eve	-11.8952
▁classification	-11.8953
ARY	-11.8953
▁Jangam	-11.8956
▁patches	-11.8957
▁puja	-11.8957
▁periodic	-11.8958
[13]	-11.8959
▁Victory	-11.8963
▁recommendation	-11.8963
▁Peel	-11.8964
▁nodded	-11.8964
▁worthless	-11.8964
▁Mid	-11.8965
▁floated	-11.8974
▁curved	-11.8975
▁respectful	-11.8977
▁hurl	-11.898
▁Uma	-11.8981
speaking	-11.8983
▁grinding	-11.8994
▁denoted	-11.8995
▁257	-11.8996
▁adviser	-11.8996
rashtra	-11.8996
▁Saying	-11.8997
▁Mulla	-11.9001
Occupation	-11.9002
Vidyāpati	-11.9002
▁Buchanan	-11.9002
▁Immortal	-11.9002
▁Kasyapa	-11.9002
▁PLEASE	-11.9002
▁dissension	-11.9002
▁profuse	-11.9002
▁propriety	-11.9002
▁fakir	-11.9002
NATIONS	-11.9003
▁Sierra	-11.9003
▁concert	-11.9003
▁ghee	-11.9003
▁acute	-11.9006
▁varies	-11.9009
▁profitable	-11.901
▁anticipated	-11.9012
▁revere	-11.9015
▁contemplated	-11.9015
▁Lâl	-11.9017
▁ix	-11.9018
▁251	-11.9021
▁DIRECT	-11.9022
▁respectfully	-11.9025
▁sentry	-11.9028
▁knock	-11.903
▁quod	-11.9032
knowing	-11.9037
▁letting	-11.9044
▁regained	-11.9049
Even	-11.9056
▁MERCHANT	-11.9058
▁Daśaratha	-11.9058
▁Antioch	-11.9058
▁Nahusha	-11.9058
▁Ortheris	-11.9058
▁circumference	-11.9058
▁granite	-11.9058
▁OWN	-11.9058
▁dispense	-11.9058
▁fortifications	-11.9058
://	-11.9058
▁Andrew	-11.9058
▁inflamed	-11.9058
▁compiled	-11.9059
▁Throughout	-11.906
plain	-11.906
▁genera	-11.9063
▁Corn	-11.9065
▁Saiva	-11.9065
▁dusky	-11.9068
cover	-11.907
gone	-11.9077
▁neighbor	-11.9082
▁goddesses	-11.9083
▁Owing	-11.9085
LAF	-11.9094
▁Duryodhan	-11.9101
▁snap	-11.9101
▁haunted	-11.9103
▁moist	-11.9105
▁til	-11.911
▁READ	-11.9111
▁wider	-11.9113
▁effulgent	-11.9113
▁majestic	-11.9113
▁penetrating	-11.9113
▁remorse	-11.9113
▁NEG	-11.9113
▁Zodiac	-11.9113
▁odour	-11.9113
▁zone	-11.9113
▁bereft	-11.9113
▁miseries	-11.9114
▁redistribution	-11.9115
▁pork	-11.9116
▁Almost	-11.9117
▁Juan	-11.9119
▁Adil	-11.912
▁Duke	-11.9121
[14]	-11.9125
peak	-11.9127
▁Defect	-11.9129
▁CX	-11.9129
▁mien	-11.9135
▁dais	-11.9139
▁deified	-11.914
▁diminished	-11.9141
▁diminish	-11.9142
▁highway	-11.9143
▁neighboring	-11.9144
▁enforce	-11.9148
[6]	-11.915
▁recruited	-11.9158
▁Baba	-11.9162
▁INCIDENT	-11.9169
%	-11.9169
▁aborigines	-11.9169
▁authoritative	-11.9169
▁emerald	-11.9169
▁illusory	-11.9169
▁easier	-11.9169
▁Science	-11.9169
▁ryot	-11.9169
▁clash	-11.9169
▁drench	-11.9169
▁inherent	-11.9169
▁subtile	-11.9169
▁trident	-11.917
▁Berlin	-11.9171
▁generated	-11.9171
▁Vijaya	-11.9171
▁blacksmith	-11.9171
▁Justice	-11.9171
▁extinction	-11.9172
▁renamed	-11.9173
brac	-11.9174
▁whin	-11.9175
▁USE	-11.9177
▁unique	-11.9179
▁mantle	-11.918
▁glide	-11.918
▁sunlight	-11.9181
▁222	-11.9184
▁attaches	-11.9185
▁somebody	-11.9189
▁restricted	-11.9195
good	-11.92
▁Bali	-11.9203
proved	-11.9205
license	-11.9205
▁Kher	-11.9205
▁powerless	-11.9207
▁incessant	-11.9208
▁Vina	-11.9212
—‘	-11.9216
▁statesman	-11.9222
▁Crœsus	-11.9225
▁Delaware	-11.9225
▁abstention	-11.9225
▁bronze	-11.9225
▁calves	-11.9225
▁indemnify	-11.9225
▁Anstruther	-11.9225
▁EXCE	-11.9225
▁Musalman	-11.9225
▁surgeon	-11.9225
▁landscape	-11.9225
▁rural	-11.9225
▁entities	-11.9225
▁settling	-11.9225
▁drought	-11.9226
▁Dasari	-11.9228
─────────────	-11.9231
▁nail	-11.9233
▁1870	-11.9237
▁Legend	-11.9238
▁pasture	-11.9243
▁ruby	-11.9243
▁Arya	-11.9243
▁advancement	-11.925
tack	-11.9257
stricken	-11.9261
▁Made	-11.9263
▁213	-11.9268
▁Assistant	-11.9282
▁CONTRA	-11.9282
▁Grecian	-11.9282
▁SUCH	-11.9282
▁adjunct	-11.9282
▁improbable	-11.9282
▁scorcher	-11.9282
▁unsolicited	-11.9282
▁virulent	-11.9282
▁Kumárapála	-11.9282
▁Sayyid	-11.9282
▁demerit	-11.9282
▁intelligible	-11.9282
▁editor	-11.9282
▁anarchy	-11.9282
▁wrestle	-11.9282
▁Chandragupta	-11.9282
▁243	-11.9282
▁64-6	-11.9283
ompliance	-11.9283
▁behest	-11.9283
▁indulged	-11.9283
▁tying	-11.9283
▁radiance	-11.9284
▁invalidity	-11.9284
TON	-11.9285
▁virus	-11.9287
▁Prana	-11.9295
▁infuriated	-11.9295
▁conventional	-11.9297
▁width	-11.9298
▁thigh	-11.9298
▁Blyth	-11.9303
qa	-11.9306
▁UT	-11.9312
▁approve	-11.9315
801)	-11.9317
snake	-11.9321
▁Present	-11.9321
▁dishonour	-11.9325
TAN	-11.9329
▁float	-11.9337
LIGENCE	-11.9339
▁Ayodhyá	-11.9339
▁Eurasian	-11.9339
▁REMED	-11.9339
▁aforesaid	-11.9339
▁livelihood	-11.9339
▁mausoleum	-11.9339
▁treason	-11.9339
▁Edition	-11.9339
▁strand	-11.9339
▁melted	-11.9339
▁Goddess	-11.9339
▁Revolution	-11.934
▁digging	-11.934
▁victories	-11.934
▁stirring	-11.9341
▁stopping	-11.9342
▁donors	-11.9343
▁Grove	-11.9345
▁faultless	-11.935
▁silken	-11.935
▁merged	-11.935
▁Gaj	-11.9351
▁Meah	-11.9357
▁insight	-11.9358
▁Acharya	-11.9358
▁PUNI	-11.9361
▁Param	-11.9362
▁Karan	-11.9369
▁262	-11.937
TIC	-11.9393
Rajasthan	-11.9393
▁CONSEQUEN	-11.9396
π	-11.9396
▁ACTUAL	-11.9396
▁Coimbatore	-11.9396
▁Colonial	-11.9396
▁Khinjan	-11.9396
▁Malcolm	-11.9396
▁NOTICE	-11.9396
▁Powhatan	-11.9396
▁astronomic	-11.9396
▁commodities	-11.9396
▁geographical	-11.9396
▁inexhaustible	-11.9396
▁perpetrated	-11.9396
▁smoking	-11.9396
▁succour	-11.9396
▁memorable	-11.9396
▁Haidar	-11.9396
▁POSS	-11.9396
▁ingenious	-11.9396
▁notifies	-11.9396
▁1873	-11.9396
▁aloof	-11.9396
śva	-11.9396
▁gulf	-11.9396
▁SEND	-11.9396
▁uniting	-11.9397
▁REFU	-11.9397
▁grandmother	-11.9397
▁proofread	-11.9397
▁Index	-11.9398
1887.	-11.9398
▁manufactured	-11.9403
▁liberality	-11.9403
▁344	-11.9407
▁ghi	-11.9409
▁exterminated	-11.9412
Bar	-11.9413
difference	-11.9414
▁235	-11.9415
eshwar	-11.9415
▁ripen	-11.9416
▁Team	-11.9416
Have	-11.9418
1541.	-11.9419
116,	-11.9421
▁PER	-11.9422
.[12	-11.9423
▁poetical	-11.9424
▁fourteenth	-11.9429
fellow	-11.9433
▁kid	-11.9435
Master	-11.9436
Know	-11.9439
readable	-11.944
load	-11.9441
▁restraining	-11.9444
▁Viswa	-11.9446
▁1837	-11.9447
▁prosper	-11.9449
IMPLI	-11.9453
ITNESS	-11.9453
▁INCLUDING	-11.9453
▁Mappilla	-11.9453
▁PROVIDE	-11.9453
▁PURPO	-11.9453
▁THOSE	-11.9453
▁expulsion	-11.9453
▁impossibility	-11.9453
▁$5,000	-11.9453
▁Phalguna	-11.9453
▁GIVE	-11.9453
▁Natural	-11.9454
▁Gandhara	-11.9454
▁Herbert	-11.9455
▁pretext	-11.9455
▁Udaya	-11.9456
Notes	-11.9456
▁flourish	-11.9456
▁Moses	-11.9456
▁troublesome	-11.9457
▁occupant	-11.9459
▁appropriated	-11.9459
▁impious	-11.946
100	-11.9465
rose	-11.9465
▁quell	-11.9469
▁regulated	-11.9471
▁gasp	-11.9472
▁passive	-11.9476
▁Holi	-11.9482
▁sew	-11.9486
▁Ghat	-11.9486
▁argue	-11.9488
legged	-11.9489
▁thirsty	-11.949
DIRECT	-11.9491
▁Guha	-11.9491
▁redistribut	-11.9492
guru	-11.9494
Defects	-11.9496
▁dur	-11.95
▁fifteenth	-11.9505
CLAIM	-11.9511
STRICT	-11.9511
▁Introduction	-11.9511
▁Lankā	-11.9511
▁conflagration	-11.9511
▁continuing	-11.9511
▁untruth	-11.9511
▁comprising	-11.9511
▁Gurkhas	-11.9511
▁booty	-11.9511
▁unlink	-11.9511
▁596-	-11.9511
▁exempl	-11.9511
▁multi	-11.9511
▁Desire	-11.9511
▁dipped	-11.9512
▁ordeal	-11.9512
▁quench	-11.9512
▁confidential	-11.9512
▁reverend	-11.9513
▁Lang	-11.9514
▁263	-11.9516
▁offend	-11.9516
▁plumage	-11.9517
▁rapidity	-11.9522
▁redistribute	-11.9528
▁Canton	-11.9543
ghur	-11.9546
proprietary	-11.9549
pleased	-11.9549
▁gratifying	-11.9551
▁Nayak	-11.9556
▁furiously	-11.9557
▁Jew	-11.9559
▁──────────	-11.956
soul	-11.956
▁tune	-11.9562
BILITY	-11.9562
▁tinge	-11.9563
BER	-11.9563
▁REPLAC	-11.9569
▁Duhsasana	-11.9569
▁FOUNDATION	-11.9569
▁Kandahar	-11.9569
▁Râmânuja	-11.9569
▁Scotland	-11.9569
▁Treasury	-11.9569
▁compensation	-11.9569
▁delicacy	-11.9569
▁inconvenience	-11.9569
▁mechanical	-11.9569
▁perceiving	-11.9569
▁perpendicular	-11.9569
▁progenitor	-11.9569
▁prostitute	-11.9569
▁unenforce	-11.9569
▁deletion	-11.9569
▁{.}	-11.9569
▁grammar	-11.957
▁255	-11.957
▁Kábul	-11.9571
Ficus	-11.9573
▁Gaz	-11.9573
▁Wales	-11.9577
▁prick	-11.9578
gold	-11.9579
▁postage	-11.9582
[15]	-11.9583
[10]	-11.959
leaves	-11.9593
▁mast	-11.9594
▁define	-11.9604
Information	-11.9607
Governor	-11.9607
trademark	-11.9607
copyright	-11.9607
eBook	-11.9607
▁Nine	-11.9609
▁244	-11.9612
▁dusk	-11.9618
▁restrict	-11.9619
▁dirt	-11.9625
▁wanton	-11.9627
lving	-11.9627
ë	-11.9628
▁Futteh	-11.9628
▁Proofreading	-11.9628
▁Pôros	-11.9628
▁accommodation	-11.9628
▁excursion	-11.9628
▁exposure	-11.9628
▁frustrat	-11.9628
▁persecution	-11.9628
Bhágabat	-11.9628
▁discourage	-11.9628
▁consuming	-11.9628
▁blare	-11.9628
▁glories	-11.9629
▁extort	-11.9629
▁whale	-11.963
▁priesthood	-11.9633
▁Doctor	-11.9633
▁1868	-11.9636
▁Golla	-11.9637
▁Circ	-11.9637
▁omit	-11.9638
Saxon	-11.9638
▁1883	-11.9639
idae	-11.9644
Wait	-11.9645
▁1869	-11.9645
eswara	-11.965
▁264	-11.965
▁scattering	-11.9653
▁PART	-11.9659
▁paw	-11.9661
▁translate	-11.9664
▁imparted	-11.9668
▁Customs	-11.9686
▁Expedition	-11.9686
▁Unfortunately	-11.9686
▁aggression	-11.9686
▁banishment	-11.9686
▁dazzling	-11.9686
▁economy	-11.9686
▁emphasis	-11.9686
▁landholders	-11.9686
▁minaret	-11.9686
▁procedure	-11.9686
▁vermilion	-11.9686
▁summary	-11.9686
▁woven	-11.9686
▁Snake	-11.9687
▁blest	-11.9687
▁Nagar	-11.9687
lamma	-11.9687
▁223	-11.9688
▁Brahmanism	-11.9689
▁Ahmed	-11.9689
▁navel	-11.9689
▁238	-11.9691
▁Kalinga	-11.9691
▁abandonment	-11.9692
▁Missionary	-11.9694
▁tumble	-11.9694
▁contentment	-11.9695
▁embroidered	-11.9707
▁firmness	-11.9709
▁interrupt	-11.9711
doubt	-11.9726
khara	-11.9727
▁Nur	-11.9728
▁hack	-11.9729
country	-11.973
Calisaya	-11.9746
▁Admiral	-11.9746
▁Firishtah	-11.9746
▁Himálaya	-11.9746
▁Nawáb	-11.9746
▁appellation	-11.9746
▁cemetery	-11.9746
▁disaffection	-11.9746
▁incredible	-11.9746
▁trustworthy	-11.9746
▁twain	-11.9746
▁effectually	-11.9746
▁precepts	-11.9746
▁Nuniz	-11.9746
▁Lusian	-11.9746
▁dragging	-11.9747
▁orphan	-11.9747
▁brahma	-11.9747
▁wrap	-11.9747
▁annexation	-11.9748
▁maize	-11.9749
ordination	-11.9753
▁packet	-11.9753
▁subjugated	-11.9754
▁Online	-11.9757
Thy	-11.9759
varta	-11.976
▁woodland	-11.9761
▁animated	-11.9764
▁professor	-11.9775
▁applaud	-11.9778
▁expand	-11.9778
▁Panch	-11.9779
▁thoughtful	-11.978
▁Ganda	-11.9786
▁puru	-11.9794
▁niche	-11.9795
▁invalid	-11.9804
Pennsylvania	-11.9805
▁Kanishka	-11.9805
▁Trichinopoly	-11.9805
▁administrative	-11.9805
▁bewildered	-11.9805
▁bleeding	-11.9805
▁cradle	-11.9805
▁enthusiast	-11.9805
▁moustache	-11.9805
▁solstice	-11.9805
▁sustenance	-11.9805
▁terribly	-11.9805
▁variegated	-11.9805
▁Godavari	-11.9805
▁cushion	-11.9805
▁Dhimar	-11.9805
▁salaam	-11.9805
▁glisten	-11.9805
▁forlorn	-11.9805
▁scope	-11.9807
▁errand	-11.9808
▁hired	-11.981
▁herald	-11.9811
▁retirement	-11.9812
ôn	-11.9813
play	-11.9813
▁Tiyan	-11.9818
▁1903	-11.9822
▁Obv	-11.9823
▁Sorath	-11.9824
▁robbery	-11.9829
▁exhaust	-11.9836
▁Gauri	-11.9841
stained	-11.9842
▁320	-11.9857
μ	-11.9865
▁insurrection	-11.9865
[...]
